{
  "version": "1.0",
  "truncation": null,
  "padding": null,
  "added_tokens": [
    {
      "id": 0,
      "content": "<PAD>",
      "single_word": false,
      "lstrip": false,
      "rstrip": false,
      "normalized": false,
      "special": true
    },
    {
      "id": 1,
      "content": "<START>",
      "single_word": false,
      "lstrip": false,
      "rstrip": false,
      "normalized": false,
      "special": true
    },
    {
      "id": 2,
      "content": "<END>",
      "single_word": false,
      "lstrip": false,
      "rstrip": false,
      "normalized": false,
      "special": true
    },
    {
      "id": 3,
      "content": "<UNK>",
      "single_word": false,
      "lstrip": false,
      "rstrip": false,
      "normalized": false,
      "special": true
    }
  ],
  "normalizer": null,
  "pre_tokenizer": {
    "type": "ByteLevel",
    "add_prefix_space": false,
    "trim_offsets": true,
    "use_regex": true
  },
  "post_processor": null,
  "decoder": {
    "type": "ByteLevel",
    "add_prefix_space": true,
    "trim_offsets": true,
    "use_regex": true
  },
  "model": {
    "type": "BPE",
    "dropout": null,
    "unk_token": "<UNK>",
    "continuing_subword_prefix": null,
    "end_of_word_suffix": null,
    "fuse_unk": false,
    "byte_fallback": false,
    "ignore_merges": false,
    "vocab": {
      "<PAD>": 0,
      "<START>": 1,
      "<END>": 2,
      "<UNK>": 3,
      "!": 4,
      "\"": 5,
      "#": 6,
      "$": 7,
      "%": 8,
      "&": 9,
      "'": 10,
      "(": 11,
      ")": 12,
      "*": 13,
      "+": 14,
      ",": 15,
      "-": 16,
      ".": 17,
      "/": 18,
      "0": 19,
      "1": 20,
      "2": 21,
      "3": 22,
      "4": 23,
      "5": 24,
      "6": 25,
      "7": 26,
      "8": 27,
      "9": 28,
      ":": 29,
      ";": 30,
      "<": 31,
      "=": 32,
      ">": 33,
      "?": 34,
      "@": 35,
      "A": 36,
      "B": 37,
      "C": 38,
      "D": 39,
      "E": 40,
      "F": 41,
      "G": 42,
      "H": 43,
      "I": 44,
      "J": 45,
      "K": 46,
      "L": 47,
      "M": 48,
      "N": 49,
      "O": 50,
      "P": 51,
      "Q": 52,
      "R": 53,
      "S": 54,
      "T": 55,
      "U": 56,
      "V": 57,
      "W": 58,
      "X": 59,
      "Y": 60,
      "Z": 61,
      "[": 62,
      "\\": 63,
      "]": 64,
      "^": 65,
      "_": 66,
      "`": 67,
      "a": 68,
      "b": 69,
      "c": 70,
      "d": 71,
      "e": 72,
      "f": 73,
      "g": 74,
      "h": 75,
      "i": 76,
      "j": 77,
      "k": 78,
      "l": 79,
      "m": 80,
      "n": 81,
      "o": 82,
      "p": 83,
      "q": 84,
      "r": 85,
      "s": 86,
      "t": 87,
      "u": 88,
      "v": 89,
      "w": 90,
      "x": 91,
      "y": 92,
      "z": 93,
      "{": 94,
      "|": 95,
      "}": 96,
      "~": 97,
      "¡": 98,
      "¢": 99,
      "£": 100,
      "¤": 101,
      "¥": 102,
      "¦": 103,
      "§": 104,
      "¨": 105,
      "©": 106,
      "ª": 107,
      "«": 108,
      "¬": 109,
      "®": 110,
      "¯": 111,
      "°": 112,
      "±": 113,
      "²": 114,
      "³": 115,
      "´": 116,
      "µ": 117,
      "¶": 118,
      "·": 119,
      "¸": 120,
      "¹": 121,
      "º": 122,
      "»": 123,
      "¼": 124,
      "½": 125,
      "¾": 126,
      "¿": 127,
      "À": 128,
      "Á": 129,
      "Â": 130,
      "Ã": 131,
      "Ä": 132,
      "Å": 133,
      "Æ": 134,
      "Ç": 135,
      "È": 136,
      "É": 137,
      "Ê": 138,
      "Ë": 139,
      "Ì": 140,
      "Í": 141,
      "Î": 142,
      "Ï": 143,
      "Ð": 144,
      "Ñ": 145,
      "Ò": 146,
      "Ó": 147,
      "Ô": 148,
      "Õ": 149,
      "Ö": 150,
      "×": 151,
      "Ø": 152,
      "Ù": 153,
      "Ú": 154,
      "Û": 155,
      "Ü": 156,
      "Ý": 157,
      "Þ": 158,
      "ß": 159,
      "à": 160,
      "á": 161,
      "â": 162,
      "ã": 163,
      "ä": 164,
      "å": 165,
      "æ": 166,
      "ç": 167,
      "è": 168,
      "é": 169,
      "ê": 170,
      "ë": 171,
      "ì": 172,
      "í": 173,
      "î": 174,
      "ï": 175,
      "ð": 176,
      "ñ": 177,
      "ò": 178,
      "ó": 179,
      "ô": 180,
      "õ": 181,
      "ö": 182,
      "÷": 183,
      "ø": 184,
      "ù": 185,
      "ú": 186,
      "û": 187,
      "ü": 188,
      "ý": 189,
      "þ": 190,
      "ÿ": 191,
      "Ā": 192,
      "ā": 193,
      "Ă": 194,
      "ă": 195,
      "Ą": 196,
      "ą": 197,
      "Ć": 198,
      "ć": 199,
      "Ĉ": 200,
      "ĉ": 201,
      "Ċ": 202,
      "ċ": 203,
      "Č": 204,
      "č": 205,
      "Ď": 206,
      "ď": 207,
      "Đ": 208,
      "đ": 209,
      "Ē": 210,
      "ē": 211,
      "Ĕ": 212,
      "ĕ": 213,
      "Ė": 214,
      "ė": 215,
      "Ę": 216,
      "ę": 217,
      "Ě": 218,
      "ě": 219,
      "Ĝ": 220,
      "ĝ": 221,
      "Ğ": 222,
      "ğ": 223,
      "Ġ": 224,
      "ġ": 225,
      "Ģ": 226,
      "ģ": 227,
      "Ĥ": 228,
      "ĥ": 229,
      "Ħ": 230,
      "ħ": 231,
      "Ĩ": 232,
      "ĩ": 233,
      "Ī": 234,
      "ī": 235,
      "Ĭ": 236,
      "ĭ": 237,
      "Į": 238,
      "į": 239,
      "İ": 240,
      "ı": 241,
      "Ĳ": 242,
      "ĳ": 243,
      "Ĵ": 244,
      "ĵ": 245,
      "Ķ": 246,
      "ķ": 247,
      "ĸ": 248,
      "Ĺ": 249,
      "ĺ": 250,
      "Ļ": 251,
      "ļ": 252,
      "Ľ": 253,
      "ľ": 254,
      "Ŀ": 255,
      "ŀ": 256,
      "Ł": 257,
      "ł": 258,
      "Ń": 259,
      "Ġt": 260,
      "Ġa": 261,
      "en": 262,
      "es": 263,
      "Ġd": 264,
      "er": 265,
      "on": 266,
      "in": 267,
      "Ġs": 268,
      "Ġp": 269,
      "Ġc": 270,
      "Ġl": 271,
      "Ġde": 272,
      "Ġth": 273,
      "ar": 274,
      "or": 275,
      "os": 276,
      "an": 277,
      "as": 278,
      "Ġm": 279,
      "re": 280,
      "at": 281,
      "ci": 282,
      "Ġthe": 283,
      "al": 284,
      "Ġh": 285,
      "is": 286,
      "Ġo": 287,
      "it": 288,
      "Ġe": 289,
      "ou": 290,
      "ent": 291,
      "Ġw": 292,
      "qu": 293,
      "ad": 294,
      "Ġy": 295,
      "Ġf": 296,
      "ed": 297,
      "Ġb": 298,
      "Ġn": 299,
      "un": 300,
      "om": 301,
      "Ġin": 302,
      "ic": 303,
      "Ġqu": 304,
      "Ã³": 305,
      "Ġla": 306,
      "Ġto": 307,
      "Ġes": 308,
      "Ġof": 309,
      "ro": 310,
      "ing": 311,
      "Ġan": 312,
      "id": 313,
      "Ġen": 314,
      "ion": 315,
      "Ġque": 316,
      "ÃŃ": 317,
      "le": 318,
      "am": 319,
      "Ġcon": 320,
      "ll": 321,
      "Ġg": 322,
      "Ã³n": 323,
      "Ġre": 324,
      "Ġun": 325,
      "Ġel": 326,
      "ec": 327,
      "us": 328,
      "Ã¡": 329,
      "Ġand": 330,
      "Ġv": 331,
      "im": 332,
      "Ġyou": 333,
      "ra": 334,
      "Ġno": 335,
      "te": 336,
      "ve": 337,
      "ta": 338,
      "Ã©": 339,
      "..": 340,
      "Ġse": 341,
      "res": 342,
      "ig": 343,
      "Ġha": 344,
      "ĠI": 345,
      "ol": 346,
      "ĠC": 347,
      "ciÃ³n": 348,
      "et": 349,
      "to": 350,
      "ir": 351,
      "ur": 352,
      "ut": 353,
      "Ġpar": 354,
      "do": 355,
      "Ġlos": 356,
      "em": 357,
      "ĠS": 358,
      "Ġcom": 359,
      "el": 360,
      "Ġpro": 361,
      "il": 362,
      "ct": 363,
      "Ġsu": 364,
      "Th": 365,
      "Ġal": 366,
      "ul": 367,
      "ation": 368,
      "Ġfor": 369,
      "tr": 370,
      "iv": 371,
      "ch": 372,
      "ter": 373,
      "ay": 374,
      "ĠA": 375,
      "Ġbe": 376,
      "ce": 377,
      "Ġis": 378,
      "Ġon": 379,
      "Ġdel": 380,
      "Ġthat": 381,
      "Â¿": 382,
      "Ġlas": 383,
      "ado": 384,
      "Ġme": 385,
      "ab": 386,
      "Ġlo": 387,
      "'s": 388,
      "Ġwh": 389,
      "ow": 390,
      "Ġit": 391,
      "ere": 392,
      "ĠE": 393,
      "ĠM": 394,
      "ien": 395,
      "ente": 396,
      "ĠP": 397,
      "aciÃ³n": 398,
      "od": 399,
      "th": 400,
      "Ġas": 401,
      "ers": 402,
      "if": 403,
      "Ġpor": 404,
      "Ġest": 405,
      "cion": 406,
      "est": 407,
      "...": 408,
      "ly": 409,
      "ÃŃa": 410,
      "Ġ1": 411,
      "Ġpara": 412,
      "st": 413,
      "Ġuna": 414,
      "Ġex": 415,
      "No": 416,
      "Ġr": 417,
      "um": 418,
      "ith": 419,
      "ant": 420,
      "ver": 421,
      "ĠD": 422,
      "ill": 423,
      "Ġ2": 424,
      "lo": 425,
      "ia": 426,
      "Ġ(": 427,
      "The": 428,
      "Ã±": 429,
      "ib": 430,
      "ue": 431,
      "Ġso": 432,
      "Ġwith": 433,
      "ero": 434,
      "00": 435,
      "iz": 436,
      "ud": 437,
      "io": 438,
      "ke": 439,
      "Ġj": 440,
      "pe": 441,
      "ld": 442,
      "ici": 443,
      "por": 444,
      "'t": 445,
      "ust": 446,
      "ist": 447,
      "Ġres": 448,
      "Ġor": 449,
      "ĠG": 450,
      "Ġgo": 451,
      "idad": 452,
      "ĠR": 453,
      "ĠB": 454,
      "Ã¡s": 455,
      "Ġpr": 456,
      "go": 457,
      "ect": 458,
      "Ġsh": 459,
      "Ġwe": 460,
      "se": 461,
      "ht": 462,
      "and": 463,
      "Ġtr": 464,
      "ier": 465,
      "Ãº": 466,
      "Ġdes": 467,
      "Ġdo": 468,
      "for": 469,
      "ment": 470,
      "end": 471,
      "Ġhe": 472,
      "Ġk": 473,
      "âĢ": 474,
      "Ġare": 475,
      "per": 476,
      "ĠL": 477,
      "Ġle": 478,
      "Ġwas": 479,
      "ĠT": 480,
      "ate": 481,
      "ient": 482,
      "Ġnot": 483,
      "nd": 484,
      "Ġcu": 485,
      "up": 486,
      "Ġthis": 487,
      "ac": 488,
      "ada": 489,
      "iÃ³n": 490,
      "Ġpu": 491,
      "Ġap": 492,
      "bre": 493,
      "ciones": 494,
      "ive": 495,
      "Ġhave": 496,
      "ies": 497,
      "ando": 498,
      "ĠH": 499,
      "Ġfr": 500,
      "Ġne": 501,
      "Ġmu": 502,
      "Ġac": 503,
      "ica": 504,
      "You": 505,
      "Ġat": 506,
      "Ġim": 507,
      "ight": 508,
      "ie": 509,
      "ould": 510,
      "Ġab": 511,
      "ap": 512,
      "ĠÂ¿": 513,
      "Es": 514,
      "port": 515,
      "ĠU": 516,
      "cia": 517,
      "Ġar": 518,
      "ess": 519,
      "Ġser": 520,
      "bl": 521,
      "ag": 522,
      "ido": 523,
      "Ġch": 524,
      "ĠN": 525,
      "ados": 526,
      "Ġte": 527,
      "ĠF": 528,
      "ales": 529,
      "Ġst": 530,
      "ber": 531,
      "Ġcomp": 532,
      "all": 533,
      "Wh": 534,
      "Ġpre": 535,
      "oc": 536,
      "de": 537,
      "ity": 538,
      "ĠCom": 539,
      "du": 540,
      "Ġall": 541,
      "Ġper": 542,
      "Ġcan": 543,
      "Ġyour": 544,
      "Ġby": 545,
      "Ġpl": 546,
      "ĠJ": 547,
      "aj": 548,
      "Ġdis": 549,
      "Ġent": 550,
      "Ġesta": 551,
      "Ġus": 552,
      "pl": 553,
      "ĠO": 554,
      "gr": 555,
      "Ġinter": 556,
      "Ġam": 557,
      "Ġmi": 558,
      "form": 559,
      "Ġcont": 560,
      "Ġcomo": 561,
      "era": 562,
      "Ġkn": 563,
      "We": 564,
      "Ġad": 565,
      "ome": 566,
      "Ġhas": 567,
      "ech": 568,
      "Ã¡n": 569,
      "Ġpart": 570,
      "amos": 571,
      "Ġmy": 572,
      "cl": 573,
      "ot": 574,
      "ip": 575,
      "El": 576,
      "ens": 577,
      "ĠmÃ¡s": 578,
      "ard": 579,
      "ios": 580,
      "Ġcons": 581,
      "ich": 582,
      "ante": 583,
      "gu": 584,
      "Ġdon": 585,
      "ple": 586,
      "Ġman": 587,
      "Ġknow": 588,
      "Ġfrom": 589,
      "ult": 590,
      "mo": 591,
      "Ġwor": 592,
      "ire": 593,
      "out": 594,
      "ces": 595,
      "Ġpued": 596,
      "ma": 597,
      "oun": 598,
      "na": 599,
      "Ġtra": 600,
      "cial": 601,
      "que": 602,
      "art": 603,
      "Ġco": 604,
      "Qu": 605,
      "cer": 606,
      "Ġrec": 607,
      "ener": 608,
      "Ġgr": 609,
      "Ġfin": 610,
      "ble": 611,
      "ven": 612,
      "ther": 613,
      "Ġ\"": 614,
      "ice": 615,
      "Ġsi": 616,
      "Ġpres": 617,
      "fer": 618,
      "En": 619,
      "ico": 620,
      "Ġ200": 621,
      "ans": 622,
      "Ġact": 623,
      "La": 624,
      "Ġver": 625,
      "'m": 626,
      "av": 627,
      "It": 628,
      "Â¡": 629,
      "Ġwill": 630,
      "king": 631,
      "ĠUn": 632,
      "Ġcas": 633,
      "Ġtod": 634,
      "our": 635,
      "emos": 636,
      "oy": 637,
      "Ġem": 638,
      "ge": 639,
      "Ã©n": 640,
      "iento": 641,
      "'re": 642,
      "uro": 643,
      "Ġout": 644,
      "Ġreg": 645,
      "Ġcar": 646,
      "uer": 647,
      "ea": 648,
      "amb": 649,
      "one": 650,
      "ure": 651,
      "ora": 652,
      "Ġsobre": 653,
      "ual": 654,
      "ations": 655,
      "ike": 656,
      "Ġcl": 657,
      "encia": 658,
      "con": 659,
      "ions": 660,
      "Ġma": 661,
      "pt": 662,
      "ĠestÃ¡": 663,
      "ug": 664,
      "amente": 665,
      "Ġcre": 666,
      "Ġ-": 667,
      "ost": 668,
      "Ġwhat": 669,
      "Ġsus": 670,
      "der": 671,
      "ida": 672,
      "Ġjust": 673,
      "oug": 674,
      "Ġher": 675,
      "ame": 676,
      "ĠCon": 677,
      "ga": 678,
      "so": 679,
      "Ġup": 680,
      "ores": 681,
      "br": 682,
      "able": 683,
      "Ġmis": 684,
      "Ġreal": 685,
      "Ġ19": 686,
      "Ġpa": 687,
      "Ġthere": 688,
      "gan": 689,
      "ues": 690,
      "ore": 691,
      "pres": 692,
      "aciones": 693,
      "Ġabout": 694,
      "Ġinform": 695,
      "Ġpers": 696,
      "ento": 697,
      "ok": 698,
      "jo": 699,
      "Ġpas": 700,
      "Ġpol": 701,
      "Ġmed": 702,
      "mit": 703,
      "ine": 704,
      "pos": 705,
      "Ġresp": 706,
      "uen": 707,
      "Ġob": 708,
      "iÃ©n": 709,
      "og": 710,
      "Ġbut": 711,
      "Ġdeci": 712,
      "Ġlike": 713,
      "Ġten": 714,
      "ord": 715,
      "ff": 716,
      "Ġ3": 717,
      "ĠW": 718,
      "Ġthey": 719,
      "ĠV": 720,
      "ance": 721,
      "Ġtu": 722,
      "Ġone": 723,
      "ong": 724,
      "eces": 725,
      "He": 726,
      "ca": 727,
      "mente": 728,
      "ime": 729,
      "pa": 730,
      "ĠK": 731,
      "ary": 732,
      "Ġright": 733,
      "ep": 734,
      "ez": 735,
      "Ġget": 736,
      "Ġta": 737,
      "gun": 738,
      "Ġdeb": 739,
      "eo": 740,
      "ĠâĢ": 741,
      "ish": 742,
      "emp": 743,
      "Ġrel": 744,
      "ial": 745,
      "ign": 746,
      "ous": 747,
      "In": 748,
      "sion": 749,
      "ear": 750,
      "min": 751,
      "Ġtien": 752,
      "ĠNo": 753,
      "ated": 754,
      "ase": 755,
      "Ġsol": 756,
      "Ġwhich": 757,
      "Ġmar": 758,
      "man": 759,
      "Ġmuch": 760,
      "co": 761,
      "itu": 762,
      "What": 763,
      "Ġany": 764,
      "ina": 765,
      "Ġperson": 766,
      "me": 767,
      "Ġbeen": 768,
      "Ġpos": 769,
      "Ġcr": 770,
      "Ġesto": 771,
      "Ġpod": 772,
      "ast": 773,
      "ian": 774,
      "Ġhim": 775,
      "Ġhere": 776,
      "par": 777,
      "Ã©s": 778,
      "Ġwho": 779,
      "cul": 780,
      "Ãºn": 781,
      "lam": 782,
      "ink": 783,
      "eg": 784,
      "ific": 785,
      "Ġpo": 786,
      "ack": 787,
      "ical": 788,
      "Por": 789,
      "ĠCh": 790,
      "ose": 791,
      "Ġwant": 792,
      "ĠEuro": 793,
      "Ġhis": 794,
      "Ġwould": 795,
      "ide": 796,
      "uc": 797,
      "tros": 798,
      "ĠquÃ©": 799,
      "adas": 800,
      "eth": 801,
      "Ġmay": 802,
      "Ġsin": 803,
      "Ġpero": 804,
      "Ġwere": 805,
      "Ġter": 806,
      "ĠIn": 807,
      "Ġinv": 808,
      "quÃŃ": 809,
      "no": 810,
      "ound": 811,
      "Ġeste": 812,
      "act": 813,
      "ater": 814,
      "Ġtheir": 815,
      "les": 816,
      "cu": 817,
      "ible": 818,
      "Ġdid": 819,
      "'ll": 820,
      "Ġson": 821,
      "ational": 822,
      "And": 823,
      "Ġbien": 824,
      "ĠSt": 825,
      "ced": 826,
      "und": 827,
      "Ã±os": 828,
      "baj": 829,
      "aus": 830,
      "ĠY": 831,
      "uest": 832,
      "Ġprodu": 833,
      "uman": 834,
      "Ġits": 835,
      "Ġsa": 836,
      "Ġro": 837,
      "Ġhad": 838,
      "Ġif": 839,
      "ativ": 840,
      "int": 841,
      "dad": 842,
      "Ġdi": 843,
      "Ġtodo": 844,
      "gram": 845,
      "ario": 846,
      "ence": 847,
      "Ġsome": 848,
      "cil": 849,
      "ons": 850,
      "This": 851,
      "Ġell": 852,
      "ond": 853,
      "Ġti": 854,
      "eneral": 855,
      "Ġsal": 856,
      "ba": 857,
      "Ġgu": 858,
      "ese": 859,
      "Ġind": 860,
      "Ã±o": 861,
      "ath": 862,
      "idas": 863,
      "ĠEst": 864,
      "ÃŃas": 865,
      "ambiÃ©n": 866,
      "ough": 867,
      "Ġmo": 868,
      "Ġhacer": 869,
      "Ġour": 870,
      "Ġincl": 871,
      "isiÃ³n": 872,
      "Ġtime": 873,
      "Ġthem": 874,
      "QuÃ©": 875,
      "Ġeso": 876,
      "la": 877,
      "Ġneed": 878,
      "Se": 879,
      "ÃŃs": 880,
      "ach": 881,
      "ĠEurope": 882,
      "ates": 883,
      "leg": 884,
      "ys": 885,
      "mas": 886,
      "ĠaquÃŃ": 887,
      "ular": 888,
      "entes": 889,
      "Ġcor": 890,
      ").": 891,
      "Ġimport": 892,
      "iÃ³": 893,
      "Ġsup": 894,
      "Ġnos": 895,
      "Ġshould": 896,
      "Ġgot": 897,
      "ara": 898,
      "Ġmore": 899,
      "Ġhay": 900,
      "Ġtrabaj": 901,
      "za": 902,
      "tic": 903,
      "Ġaf": 904,
      "Ġfe": 905,
      "iste": 906,
      "Ġtrans": 907,
      "De": 908,
      "ind": 909,
      "Ġsab": 910,
      "uev": 911,
      "Ġins": 912,
      "Ġneces": 913,
      "cr": 914,
      "That": 915,
      "ied": 916,
      "Ġsec": 917,
      "Ġah": 918,
      "Ġtan": 919,
      "Ġdif": 920,
      "ks": 921,
      "idades": 922,
      "Ġ5": 923,
      "ry": 924,
      "Ġthink": 925,
      "cional": 926,
      "Ġever": 927,
      "erv": 928,
      "ade": 929,
      "Ġag": 930,
      "Ġprov": 931,
      "Ġother": 932,
      "lev": 933,
      "Ġ4": 934,
      "tra": 935,
      "Ġshe": 936,
      "iendo": 937,
      "'ve": 938,
      "ito": 939,
      "Ġ20": 940,
      "Ġentre": 941,
      "Ġsee": 942,
      "pro": 943,
      "iones": 944,
      "ional": 945,
      "Ġsub": 946,
      "Ġnow": 947,
      "Ġev": 948,
      "Ġcoun": 949,
      "ura": 950,
      "Ġra": 951,
      "Ġmen": 952,
      "arÃ¡": 953,
      "âĢĿ": 954,
      "cias": 955,
      "Ġni": 956,
      "ĠÃ©": 957,
      "Ġaut": 958,
      "thing": 959,
      "mis": 960,
      "ret": 961,
      "Si": 962,
      "ang": 963,
      "fr": 964,
      "ict": 965,
      "ĠtambiÃ©n": 966,
      "Ġfue": 967,
      "Ġmuy": 968,
      "Ġprogram": 969,
      "ild": 970,
      "Ġhab": 971,
      "Ġcap": 972,
      "Ġoff": 973,
      "echo": 974,
      "ays": 975,
      "Ġhuman": 976,
      "Âł": 977,
      "Ġalso": 978,
      "tain": 979,
      "eople": 980,
      "irect": 981,
      "Ġop": 982,
      "reat": 983,
      "ph": 984,
      "Ġvis": 985,
      "ne": 986,
      "igo": 987,
      "Ġwhen": 988,
      "lect": 989,
      "Ġserv": 990,
      "ias": 991,
      "),": 992,
      "pecial": 993,
      "jer": 994,
      "Ġtodos": 995,
      "ace": 996,
      "Lo": 997,
      "ior": 998,
      "Ġorgan": 999,
      "Ġyear": 1000,
      "Ġpuede": 1001,
      "Ġder": 1002,
      "ities": 1003,
      "Ġtal": 1004,
      "Ġyo": 1005,
      "Ġfo": 1006,
      "Ġacc": 1007,
      "Ġwork": 1008,
      "Ġcam": 1009,
      "Ġthan": 1010,
      "Ġcould": 1011,
      "Ġbr": 1012,
      "ings": 1013,
      "Est": 1014,
      "Ġprim": 1015,
      "Ġvez": 1016,
      "Pero": 1017,
      "Ġbec": 1018,
      "he": 1019,
      "ty": 1020,
      "pr": 1021,
      "aron": 1022,
      "Ġbo": 1023,
      "ino": 1024,
      "Ġcuando": 1025,
      "ub": 1026,
      "icos": 1027,
      "az": 1028,
      "ause": 1029,
      "But": 1030,
      "Ġfir": 1031,
      "ile": 1032,
      "ite": 1033,
      "Ġfu": 1034,
      "tru": 1035,
      "Los": 1036,
      "Ġbet": 1037,
      "Ã³lo": 1038,
      "Ġprop": 1039,
      "ree": 1040,
      "ement": 1041,
      "Ġinc": 1042,
      "tem": 1043,
      "Ġint": 1044,
      "Ġproble": 1045,
      "Ġdem": 1046,
      "lop": 1047,
      "âĢĻ": 1048,
      "Ġover": 1049,
      "Me": 1050,
      "Ġpeople": 1051,
      "Ġmin": 1052,
      "ident": 1053,
      "Ġsom": 1054,
      "Ġant": 1055,
      "ited": 1056,
      "ĠpaÃŃs": 1057,
      "ĠEs": 1058,
      "we": 1059,
      "Ġplan": 1060,
      "tal": 1061,
      "Ġgood": 1062,
      "wn": 1063,
      "velop": 1064,
      "age": 1065,
      "Ġconf": 1066,
      "200": 1067,
      "llo": 1068,
      "itar": 1069,
      "Ġback": 1070,
      "Ġalgo": 1071,
      "antes": 1072,
      "Ġmej": 1073,
      "Ġnuev": 1074,
      "amil": 1075,
      "ĠâĢľ": 1076,
      "Ġinto": 1077,
      "wo": 1078,
      "ick": 1079,
      "Ġtiene": 1080,
      "As": 1081,
      "Ġonly": 1082,
      "da": 1083,
      "arse": 1084,
      "Ġcol": 1085,
      "Ġactiv": 1086,
      "Ġcountr": 1087,
      "ember": 1088,
      "ren": 1089,
      "Ġhow": 1090,
      "Ġcos": 1091,
      "ecto": 1092,
      "pp": 1093,
      "ĠAs": 1094,
      "ef": 1095,
      "ak": 1096,
      "Ġdos": 1097,
      "ras": 1098,
      "Ġtake": 1099,
      "ob": 1100,
      "Ġsay": 1101,
      "idos": 1102,
      "Ġform": 1103,
      "ĠasÃŃ": 1104,
      "Ġnew": 1105,
      "ÃŃcul": 1106,
      "ombre": 1107,
      "own": 1108,
      "arro": 1109,
      "Ġdur": 1110,
      "gain": 1111,
      "Ġhan": 1112,
      "ider": 1113,
      "Ġef": 1114,
      "fore": 1115,
      "mission": 1116,
      "Ã³mo": 1117,
      "Well": 1118,
      "Ġmat": 1119,
      "ador": 1120,
      "ave": 1121,
      "inci": 1122,
      "icas": 1123,
      "Ġmon": 1124,
      "mun": 1125,
      "Ġgoing": 1126,
      "are": 1127,
      "Ġevery": 1128,
      "ran": 1129,
      "Ġya": 1130,
      "iente": 1131,
      "Ġpresent": 1132,
      "tos": 1133,
      "Ġcall": 1134,
      "Ġ199": 1135,
      "ivo": 1136,
      "Ġcer": 1137,
      "Ġcent": 1138,
      "ĠPres": 1139,
      "ts": 1140,
      "Ġagain": 1141,
      "ife": 1142,
      "Ġfun": 1143,
      "ument": 1144,
      "Ġhel": 1145,
      "ors": 1146,
      "Ġfamil": 1147,
      "Ġer": 1148,
      "ueno": 1149,
      "ones": 1150,
      "be": 1151,
      "iciÃ³n": 1152,
      "ject": 1153,
      "dit": 1154,
      "Ġoc": 1155,
      "Al": 1156,
      "ning": 1157,
      "ory": 1158,
      "Ġ6": 1159,
      "ÃŃo": 1160,
      "Ġay": 1161,
      "Ġir": 1162,
      "empo": 1163,
      "So": 1164,
      "igu": 1165,
      "ÃŃan": 1166,
      "They": 1167,
      "Ġera": 1168,
      "Ġdef": 1169,
      "Ġmake": 1170,
      "tern": 1171,
      "igh": 1172,
      "duc": 1173,
      "Ġway": 1174,
      "Ġthese": 1175,
      "Ġart": 1176,
      "itt": 1177,
      "ĠaÃ±os": 1178,
      "sel": 1179,
      "ana": 1180,
      "Ġproduct": 1181,
      "ament": 1182,
      "Ġtiempo": 1183,
      "emb": 1184,
      "Ġhabl": 1185,
      "Ġcontr": 1186,
      "car": 1187,
      "ĠAr": 1188,
      "iero": 1189,
      "uel": 1190,
      "onna": 1191,
      "blic": 1192,
      "ural": 1193,
      "ices": 1194,
      "iera": 1195,
      "Ġrequ": 1196,
      "Ġmejor": 1197,
      "cio": 1198,
      "Ġcontra": 1199,
      "aba": 1200,
      "usted": 1201,
      "Oh": 1202,
      "ivers": 1203,
      "ĠComisiÃ³n": 1204,
      "Ġequ": 1205,
      "Ġtrat": 1206,
      "Ġecon": 1207,
      "There": 1208,
      "Ġorganiz": 1209,
      "vi": 1210,
      "ĠÃ©l": 1211,
      "Ġinst": 1212,
      "Ġdecir": 1213,
      "Ġstr": 1214,
      "ĠÂ¡": 1215,
      "Ġunder": 1216,
      "Ġdevelop": 1217,
      "mos": 1218,
      "lic": 1219,
      "ugar": 1220,
      "Ġvol": 1221,
      "Ġmod": 1222,
      "Ġvery": 1223,
      "Ġnuest": 1224,
      "ĠPar": 1225,
      "Ġtom": 1226,
      "ution": 1227,
      "uciÃ³n": 1228,
      "Ġass": 1229,
      "Ġleg": 1230,
      "Ġbas": 1231,
      "Ġwhere": 1232,
      "ft": 1233,
      "oci": 1234,
      "present": 1235,
      "Ġgonna": 1236,
      "Ġpodr": 1237,
      "ck": 1238,
      "Ġfa": 1239,
      "Ġahora": 1240,
      "arÃŃa": 1241,
      "Ġmust": 1242,
      "Ġprom": 1243,
      "Ġllam": 1244,
      "pect": 1245,
      "pu": 1246,
      "Ġtwo": 1247,
      "ĠYou": 1248,
      "Ġreport": 1249,
      "If": 1250,
      "uy": 1251,
      "olog": 1252,
      "Ġparte": 1253,
      "Ġayud": 1254,
      "ments": 1255,
      "Ġsent": 1256,
      "Ġalgun": 1257,
      "che": 1258,
      "amiento": 1259,
      "Ġsaid": 1260,
      "Ġlib": 1261,
      "ita": 1262,
      "Ġcal": 1263,
      "ĠEstados": 1264,
      "aci": 1265,
      "Te": 1266,
      "ating": 1267,
      "cal": 1268,
      "Ġfirst": 1269,
      "Ġprinci": 1270,
      "Ġmal": 1271,
      "Ġcontin": 1272,
      "vern": 1273,
      "Ġmom": 1274,
      "Ġsp": 1275,
      "Ġcome": 1276,
      "Ġsign": 1277,
      "icular": 1278,
      "Ġconsider": 1279,
      "truct": 1280,
      "Ġusted": 1281,
      "ĠPro": 1282,
      "ton": 1283,
      "vent": 1284,
      "Ġfav": 1285,
      "Ġresol": 1286,
      "Ġtell": 1287,
      "Ġdej": 1288,
      "Ġref": 1289,
      "echos": 1290,
      "Ã±or": 1291,
      "ÃŃt": 1292,
      "ely": 1293,
      "lar": 1294,
      "tras": 1295,
      "Ġdoes": 1296,
      "Ġbus": 1297,
      "Ġval": 1298,
      "Ġsitu": 1299,
      "ista": 1300,
      "arios": 1301,
      "Ġese": 1302,
      "Ġthose": 1303,
      "ĠCommission": 1304,
      "Ġ7": 1305,
      "Ġlet": 1306,
      "endo": 1307,
      "Ġnor": 1308,
      "Ġbel": 1309,
      "ative": 1310,
      "Ġfinan": 1311,
      "ise": 1312,
      "ĠSec": 1313,
      "eah": 1314,
      "iliz": 1315,
      "Ġthr": 1316,
      "ipo": 1317,
      "Ġdown": 1318,
      "Ġsegu": 1319,
      "ass": 1320,
      "erg": 1321,
      "Ġvi": 1322,
      "Ġparticular": 1323,
      "den": 1324,
      "ece": 1325,
      "Ã©r": 1326,
      "ress": 1327,
      "Ġdesarro": 1328,
      "enta": 1329,
      "Ġcomple": 1330,
      "ew": 1331,
      "istr": 1332,
      "Ġresult": 1333,
      "ros": 1334,
      "Ġvida": 1335,
      "Ġexper": 1336,
      "med": 1337,
      "Ġ10": 1338,
      "icip": 1339,
      "ĠDe": 1340,
      "ting": 1341,
      "llow": 1342,
      "Cu": 1343,
      "ĠestÃ¡n": 1344,
      "Ġlugar": 1345,
      "Ġmun": 1346,
      "'d": 1347,
      "Ġsta": 1348,
      "ten": 1349,
      "ĠReg": 1350,
      "vo": 1351,
      "Ġ201": 1352,
      "Ġtrabajo": 1353,
      "How": 1354,
      "ething": 1355,
      "ĠStates": 1356,
      "ody": 1357,
      "ĠRe": 1358,
      "Ġwell": 1359,
      "imin": 1360,
      "ÃŃn": 1361,
      "Ġspe": 1362,
      "Ġsuch": 1363,
      "Ġthen": 1364,
      "Ġmujer": 1365,
      "Ġ9": 1366,
      "Ġmade": 1367,
      "Ġintern": 1368,
      "ought": 1369,
      "Ġ8": 1370,
      "Ġcomun": 1371,
      "ij": 1372,
      "cy": 1373,
      "Ġprot": 1374,
      "Ġllev": 1375,
      "ĠCoun": 1376,
      "ĠAm": 1377,
      "red": 1378,
      "Ġnada": 1379,
      "unto": 1380,
      "adre": 1381,
      "Ġtem": 1382,
      "Ġcontro": 1383,
      "ĠThe": 1384,
      "Ġthrough": 1385,
      "Con": 1386,
      "Ġhapp": 1387,
      "Ġdr": 1388,
      "Esto": 1389,
      "Ġado": 1390,
      "Ġeven": 1391,
      "ĠAl": 1392,
      "Ġshall": 1393,
      "sejo": 1394,
      "Ġlook": 1395,
      "iva": 1396,
      "Ġcual": 1397,
      "iel": 1398,
      "ort": 1399,
      "Ġyears": 1400,
      "tro": 1401,
      "cess": 1402,
      "imiento": 1403,
      "ĠUnited": 1404,
      "Ġoper": 1405,
      "Ġpe": 1406,
      "Ġrepresent": 1407,
      "Ġho": 1408,
      "cept": 1409,
      "ĠsÃ³lo": 1410,
      "Ġgra": 1411,
      "ĠMar": 1412,
      "ued": 1413,
      "Ġterr": 1414,
      "ĠGeneral": 1415,
      "SÃŃ": 1416,
      "ds": 1417,
      "ures": 1418,
      "Ġfavor": 1419,
      "ĠAn": 1420,
      "vel": 1421,
      "She": 1422,
      "Ġdirect": 1423,
      "ex": 1424,
      "Ġbecause": 1425,
      "oper": 1426,
      "Ġtoo": 1427,
      "Ġid": 1428,
      "uerdo": 1429,
      "Ġhasta": 1430,
      "ĠEuropean": 1431,
      "ady": 1432,
      "Ġhelp": 1433,
      "Ġdidn": 1434,
      "Com": 1435,
      "Ġsomething": 1436,
      "Ġcab": 1437,
      "Ġinf": 1438,
      "Ġrev": 1439,
      "Ġseg": 1440,
      "mitte": 1441,
      "Ġmill": 1442,
      "Ġke": 1443,
      "ena": 1444,
      "ilidad": 1445,
      "Ġchild": 1446,
      "ĠMr": 1447,
      "Ġfuer": 1448,
      "way": 1449,
      "Ġdeber": 1450,
      "ms": 1451,
      "Ġafter": 1452,
      "po": 1453,
      ".\"": 1454,
      "ved": 1455,
      "ition": 1456,
      "ather": 1457,
      "urn": 1458,
      "Ġestar": 1459,
      "Ġestoy": 1460,
      "Ġinclud": 1461,
      "Un": 1462,
      "jet": 1463,
      "Ġporque": 1464,
      "oco": 1465,
      "Ġella": 1466,
      "Ġnever": 1467,
      "ato": 1468,
      "ÃŃculo": 1469,
      "ĠEn": 1470,
      "oso": 1471,
      "icial": 1472,
      "Las": 1473,
      "ĠTr": 1474,
      "urs": 1475,
      "pend": 1476,
      "Ġdesde": 1477,
      "Ġsim": 1478,
      "ari": 1479,
      "ital": 1480,
      "omb": 1481,
      "ystem": 1482,
      "Ġprof": 1483,
      "ĠConsejo": 1484,
      "Ġlong": 1485,
      "Ġreally": 1486,
      "Ġsea": 1487,
      "ps": 1488,
      "Ġcasa": 1489,
      "Ġhecho": 1490,
      "imos": 1491,
      "Ġbefore": 1492,
      "mittee": 1493,
      "ĠSe": 1494,
      "Ġexam": 1495,
      "cho": 1496,
      "ert": 1497,
      "ĠIs": 1498,
      "ĠHe": 1499,
      "ustr": 1500,
      "ittle": 1501,
      "row": 1502,
      "ĠLa": 1503,
      "Ġcompr": 1504,
      "Ġesa": 1505,
      "contr": 1506,
      "cionales": 1507,
      "ĠCouncil": 1508,
      "Ġbuen": 1509,
      "Ten": 1510,
      "Ã³m": 1511,
      "puÃ©s": 1512,
      "\".": 1513,
      "urr": 1514,
      "uridad": 1515,
      "iar": 1516,
      "Ġaplic": 1517,
      "Ġmucho": 1518,
      "Ġprincip": 1519,
      "Ġmismo": 1520,
      "Ġlife": 1521,
      "ility": 1522,
      "ĠsÃ©": 1523,
      "lear": 1524,
      "Ġhace": 1525,
      "Ġbl": 1526,
      "ima": 1527,
      "xt": 1528,
      "ĠdÃŃa": 1529,
      "Ġreci": 1530,
      "Ġinvest": 1531,
      "imo": 1532,
      "lt": 1533,
      "Yo": 1534,
      "ĠÃº": 1535,
      "Ġwom": 1536,
      "cid": 1537,
      "Ġsido": 1538,
      "19": 1539,
      "adores": 1540,
      "Ġpuedo": 1541,
      "ĠpaÃŃses": 1542,
      "bros": 1543,
      "Ġej": 1544,
      "Ġmundo": 1545,
      "lla": 1546,
      "ender": 1547,
      "unca": 1548,
      "fic": 1549,
      "Ġantes": 1550,
      "nos": 1551,
      "Ġmeet": 1552,
      "Ãºbl": 1553,
      "Ġva": 1554,
      "Ġworld": 1555,
      "Ġadopt": 1556,
      "Ġestaba": 1557,
      "arÃ©": 1558,
      "ail": 1559,
      "gra": 1560,
      "Ġmean": 1561,
      "iew": 1562,
      "ientes": 1563,
      "eros": 1564,
      "Ġuno": 1565,
      "ĠEl": 1566,
      "Ġlittle": 1567,
      "Ġinte": 1568,
      "Ġinterna": 1569,
      "je": 1570,
      "Ġsect": 1571,
      "Ġgran": 1572,
      "ffect": 1573,
      "ween": 1574,
      "bar": 1575,
      "Ġph": 1576,
      "Ġmil": 1577,
      "Ġfind": 1578,
      "Ã±a": 1579,
      "lamento": 1580,
      "Ġfl": 1581,
      "Ġnum": 1582,
      "com": 1583,
      "land": 1584,
      "Ġpens": 1585,
      "Ġcamb": 1586,
      "embros": 1587,
      "plic": 1588,
      "Ġfollow": 1589,
      "kay": 1590,
      "Ġav": 1591,
      "ted": 1592,
      "cciÃ³n": 1593,
      "Ġday": 1594,
      "Ġesper": 1595,
      "Ġmer": 1596,
      "Bueno": 1597,
      "empre": 1598,
      "ĠGo": 1599,
      "Ã¡r": 1600,
      "Ġmayor": 1601,
      "old": 1602,
      "Ġviol": 1603,
      "Ġespecial": 1604,
      "ivos": 1605,
      "ieve": 1606,
      "ever": 1607,
      "Ġotros": 1608,
      "ismo": 1609,
      "ano": 1610,
      "ĠinformaciÃ³n": 1611,
      "Ġut": 1612,
      "Ġmet": 1613,
      "Ġsystem": 1614,
      "Ġencontr": 1615,
      "000": 1616,
      "vernment": 1617,
      "ister": 1618,
      "Ġcada": 1619,
      "taciÃ³n": 1620,
      "icios": 1621,
      "Ġbeing": 1622,
      "ulation": 1623,
      "Ġmost": 1624,
      "iere": 1625,
      "Ġsiste": 1626,
      "Ġesp": 1627,
      "Ġdesarrollo": 1628,
      "Ġgeneral": 1629,
      "Ġsocial": 1630,
      "Ġmater": 1631,
      "icio": 1632,
      "ĠCommittee": 1633,
      "Ġpersonas": 1634,
      "Ġbetween": 1635,
      "Ġsuper": 1636,
      "Ġtengo": 1637,
      "Ġhor": 1638,
      "ĠtÃº": 1639,
      "iciones": 1640,
      "ĠmÃŃ": 1641,
      "Ġpublic": 1642,
      "izaciÃ³n": 1643,
      "ateg": 1644,
      "ying": 1645,
      "Ġuse": 1646,
      "Ġproced": 1647,
      "Ġce": 1648,
      "itor": 1649,
      "plement": 1650,
      "Ġlast": 1651,
      "Ġ12": 1652,
      "Ġparticip": 1653,
      "Ġqued": 1654,
      "Ġsoci": 1655,
      "Ġlove": 1656,
      "ork": 1657,
      "Why": 1658,
      "atos": 1659,
      "Ġexp": 1660,
      "idente": 1661,
      "Ġdebe": 1662,
      "als": 1663,
      "ether": 1664,
      "ents": 1665,
      "Ġstill": 1666,
      "tar": 1667,
      "Ġinformation": 1668,
      "Ġotra": 1669,
      "Ġestable": 1670,
      "Ah": 1671,
      "Ġ15": 1672,
      "Ġcountries": 1673,
      "ĠGr": 1674,
      "Ġdar": 1675,
      "Ġdoc": 1676,
      "Ġrespons": 1677,
      "udad": 1678,
      "uck": 1679,
      "Ġ'": 1680,
      "Ġprepar": 1681,
      "Mi": 1682,
      "Ġz": 1683,
      "ĠÃºlt": 1684,
      "Ġown": 1685,
      "Ġsupport": 1686,
      "Ġcooper": 1687,
      "Ġplace": 1688,
      "ator": 1689,
      "To": 1690,
      "Ġtanto": 1691,
      "ves": 1692,
      "==": 1693,
      "Ġeconom": 1694,
      "CE": 1695,
      "uch": 1696,
      "Ġdisc": 1697,
      "Ġhigh": 1698,
      "ger": 1699,
      "Ġimp": 1700,
      "iudad": 1701,
      "hor": 1702,
      "Ġverdad": 1703,
      "blish": 1704,
      "ouse": 1705,
      "Ġven": 1706,
      "Ġdurante": 1707,
      "Ġtodas": 1708,
      "Ġproy": 1709,
      "ieron": 1710,
      "aria": 1711,
      "Ġhand": 1712,
      "Ġhombre": 1713,
      "lease": 1714,
      "Ġquer": 1715,
      "Ġfund": 1716,
      "ins": 1717,
      "Ġrecom": 1718,
      "Ġincre": 1719,
      "Ġlar": 1720,
      "Ġhist": 1721,
      "can": 1722,
      "Ġgive": 1723,
      "ĠSecret": 1724,
      "ĠhabÃŃa": 1725,
      "ange": 1726,
      "Ġtar": 1727,
      "Ġconcer": 1728,
      "Ġinternational": 1729,
      "ving": 1730,
      "Ġfact": 1731,
      "ĠestÃ¡s": 1732,
      "Ġactual": 1733,
      "Ġtener": 1734,
      "ancia": 1735,
      "Ġpolic": 1736,
      "Ġmor": 1737,
      "Ġcontrol": 1738,
      "Ġ.": 1739,
      "ĠSr": 1740,
      "Ġmenos": 1741,
      "Ġset": 1742,
      "Ġpal": 1743,
      "Ġlleg": 1744,
      "Ġobjet": 1745,
      "Ġsur": 1746,
      "Ġforma": 1747,
      "Ġappro": 1748,
      "Ġnat": 1749,
      "Ġpat": 1750,
      "ientos": 1751,
      "ait": 1752,
      "Ġ,": 1753,
      "miento": 1754,
      "Ġdist": 1755,
      "ierno": 1756,
      "ĠartÃŃculo": 1757,
      "Ġext": 1758,
      "ticle": 1759,
      "Ġobs": 1760,
      "Ġwhy": 1761,
      "Ġfinal": 1762,
      "Ġcosas": 1763,
      "ceso": 1764,
      "Ġmany": 1765,
      "mon": 1766,
      "Ġconst": 1767,
      "self": 1768,
      "uesto": 1769,
      "iene": 1770,
      "Ġsame": 1771,
      "cto": 1772,
      "Ġput": 1773,
      "ĠIt": 1774,
      "Ġacuerdo": 1775,
      "Ġdeter": 1776,
      "Ġwr": 1777,
      "Ġna": 1778,
      "zo": 1779,
      "Ġ18": 1780,
      "ĠsÃŃ": 1781,
      "entro": 1782,
      "Ġbar": 1783,
      "Ġdin": 1784,
      "ĠSo": 1785,
      "Ġkill": 1786,
      "Ġve": 1787,
      "Ġexist": 1788,
      "Ġfeel": 1789,
      "uego": 1790,
      "An": 1791,
      "Ġquiero": 1792,
      "ner": 1793,
      "Ġthing": 1794,
      "Ġrefer": 1795,
      "EC": 1796,
      "Ġmiembros": 1797,
      "Ġpregun": 1798,
      "Esta": 1799,
      "quier": 1800,
      "ata": 1801,
      "ĠNaciones": 1802,
      "Ġlaw": 1803,
      "ĠOr": 1804,
      "Ġcompet": 1805,
      "Ġtipo": 1806,
      "ward": 1807,
      "Ġlim": 1808,
      "Ġtotal": 1809,
      "Ġpoco": 1810,
      "Ġcour": 1811,
      "hip": 1812,
      "irl": 1813,
      "Ġ...": 1814,
      "ĠUnidas": 1815,
      "Cre": 1816,
      "bo": 1817,
      "Ġapro": 1818,
      "Ġciudad": 1819,
      "ON": 1820,
      "get": 1821,
      "urity": 1822,
      "Ġsolo": 1823,
      "Ġwon": 1824,
      "gen": 1825,
      "Ġelect": 1826,
      "Ġplay": 1827,
      "ĠNations": 1828,
      "Ġconv": 1829,
      "Ġotro": 1830,
      "Do": 1831,
      "col": 1832,
      "ik": 1833,
      "ful": 1834,
      "Ġda": 1835,
      "Ġellos": 1836,
      "Ġend": 1837,
      "ket": 1838,
      "Ġpueden": 1839,
      "Ġfut": 1840,
      "ye": 1841,
      "Ġrealiz": 1842,
      "Ã³nde": 1843,
      "Ġagr": 1844,
      "ĠdespuÃ©s": 1845,
      "Ġnoso": 1846,
      "Ġutiliz": 1847,
      "Ġdoing": 1848,
      "Ġderechos": 1849,
      "ajo": 1850,
      "Ġgreat": 1851,
      "oh": 1852,
      "ES": 1853,
      "CÃ³mo": 1854,
      "ĠAnd": 1855,
      "uto": 1856,
      "guien": 1857,
      "Ġeduc": 1858,
      "Ġpermit": 1859,
      "Ġagainst": 1860,
      "its": 1861,
      "Ġnuevo": 1862,
      "20": 1863,
      "Yeah": 1864,
      "Ġshow": 1865,
      "iend": 1866,
      "Ġhaber": 1867,
      "Ġestado": 1868,
      "Ġinvestig": 1869,
      "ives": 1870,
      "reg": 1871,
      "Ġca": 1872,
      "Ġcuenta": 1873,
      "ja": 1874,
      "Ġben": 1875,
      "embre": 1876,
      "Ġused": 1877,
      "ders": 1878,
      "Ġcaso": 1879,
      "Ġmant": 1880,
      "istas": 1881,
      "oney": 1882,
      "arl": 1883,
      "Ġstart": 1884,
      "ĠGod": 1885,
      "Ġbu": 1886,
      "ĠWhat": 1887,
      "ank": 1888,
      "Ġdisp": 1889,
      "upo": 1890,
      "ways": 1891,
      "itÃ©": 1892,
      "For": 1893,
      "Ġ[": 1894,
      "Ġdonde": 1895,
      "ĠLe": 1896,
      "ĠÂ": 1897,
      "Ġescu": 1898,
      "munity": 1899,
      "Ãī": 1900,
      "Ġdevelopment": 1901,
      "Ġnosotros": 1902,
      "Ġles": 1903,
      "Ġblo": 1904,
      "Ġdiffer": 1905,
      "Ã¡m": 1906,
      "Ġpersonal": 1907,
      "ican": 1908,
      "Ġpon": 1909,
      "Ġret": 1910,
      "ieres": 1911,
      "ral": 1912,
      "Des": 1913,
      "Ġautor": 1914,
      "Ġapoy": 1915,
      "Ġidea": 1916,
      "Ġsto": 1917,
      "Ġgente": 1918,
      "Ġposs": 1919,
      "Ġcountry": 1920,
      "Ġmomento": 1921,
      "arme": 1922,
      "Ġrights": 1923,
      "Ġdich": 1924,
      "bor": 1925,
      "ĠUN": 1926,
      "ĠWe": 1927,
      "bal": 1928,
      "ĠTh": 1929,
      "Ġsoy": 1930,
      "portun": 1931,
      "Ġcontrib": 1932,
      "All": 1933,
      "ĠaÃ±o": 1934,
      "Ġmuer": 1935,
      "ER": 1936,
      "--": 1937,
      "endr": 1938,
      "Ġgrand": 1939,
      "Ġbro": 1940,
      "oup": 1941,
      "ĠMin": 1942,
      "ract": 1943,
      "Ġcuest": 1944,
      "ĠAd": 1945,
      "Ġhome": 1946,
      "Eso": 1947,
      "Ġsigu": 1948,
      "Ã¡l": 1949,
      "Ġiss": 1950,
      "Ġinforme": 1951,
      "arm": 1952,
      "Ġcult": 1953,
      "ĠDios": 1954,
      "cen": 1955,
      "Ġsor": 1956,
      "tel": 1957,
      "Ġask": 1958,
      "Ġsiempre": 1959,
      "Para": 1960,
      "tas": 1961,
      "Ġvo": 1962,
      "Ġcapaci": 1963,
      "duct": 1964,
      "Ġthought": 1965,
      "Ġnuestro": 1966,
      "ban": 1967,
      "imes": 1968,
      "Ad": 1969,
      "iven": 1970,
      "op": 1971,
      "Ġimplement": 1972,
      "AsÃŃ": 1973,
      "Ġbre": 1974,
      "echn": 1975,
      "zÃ³n": 1976,
      "Ġnational": 1977,
      "ĠSh": 1978,
      "uso": 1979,
      "Ġfound": 1980,
      "Ãºm": 1981,
      "Don": 1982,
      "Ġhappen": 1983,
      "ters": 1984,
      "Ġpoint": 1985,
      "Ġpriv": 1986,
      "Ġamb": 1987,
      "10": 1988,
      "Ġano": 1989,
      "Ġtalk": 1990,
      "Ġdir": 1991,
      "Ġning": 1992,
      "Ġorder": 1993,
      "oria": 1994,
      "Ġele": 1995,
      "ious": 1996,
      "Ġestud": 1997,
      "untos": 1998,
      "ĠBr": 1999,
      "Ġmes": 2000,
      "ijo": 2001,
      "Ġsig": 2002,
      "Ġpel": 2003,
      "Ġdiv": 2004,
      "Ġsex": 2005,
      "Ġbetter": 2006,
      "body": 2007,
      "arte": 2008,
      "iod": 2009,
      "iter": 2010,
      "ness": 2011,
      "Ġprovid": 2012,
      "uesta": 2013,
      "vis": 2014,
      "Ġcond": 2015,
      "When": 2016,
      "ken": 2017,
      "Ġnues": 2018,
      "inal": 2019,
      "ection": 2020,
      "Ġtres": 2021,
      "Ġdra": 2022,
      "eng": 2023,
      "Ġvoy": 2024,
      "Ġmeas": 2025,
      "Ġexpres": 2026,
      "Ã¡ct": 2027,
      "crib": 2028,
      "cent": 2029,
      "Re": 2030,
      "ĠPresident": 2031,
      "Ġmedidas": 2032,
      "ale": 2033,
      "Ġdecl": 2034,
      "Ġexpl": 2035,
      "aste": 2036,
      "Ġthree": 2037,
      "My": 2038,
      "iving": 2039,
      "Ġnoche": 2040,
      "Ġadmin": 2041,
      "ona": 2042,
      "Que": 2043,
      "Ġnight": 2044,
      "Le": 2045,
      "ativa": 2046,
      "aje": 2047,
      "Ġnumber": 2048,
      "ĠZ": 2049,
      "Ġsistema": 2050,
      "Ġfinanci": 2051,
      "til": 2052,
      "iss": 2053,
      "ordin": 2054,
      "Ġchildren": 2055,
      "ines": 2056,
      "ĠPr": 2057,
      "ĠpolÃŃt": 2058,
      "cis": 2059,
      "Ġdijo": 2060,
      "Ġwomen": 2061,
      "Ġalways": 2062,
      "cep": 2063,
      "Ġexperien": 2064,
      "Ġeffect": 2065,
      "ĠRep": 2066,
      "Ġdest": 2067,
      "Ġauthor": 2068,
      "Pued": 2069,
      "ower": 2070,
      "Ġlist": 2071,
      "Ġquest": 2072,
      "Ġestos": 2073,
      "Ġapart": 2074,
      "Ġanything": 2075,
      "ĠÃºn": 2076,
      "ned": 2077,
      "Ġnombre": 2078,
      "Ġaround": 2079,
      "Ġkeep": 2080,
      "Ġentr": 2081,
      "zar": 2082,
      "blig": 2083,
      "Ġens": 2084,
      "Ġname": 2085,
      "Ġnuestra": 2086,
      "Ġseguridad": 2087,
      "Ġpap": 2088,
      "Ġgirl": 2089,
      "Ġcost": 2090,
      "ciendo": 2091,
      "Ġdetermin": 2092,
      "Ġagu": 2093,
      "Ġtienen": 2094,
      "Ġimportant": 2095,
      "Ġvuel": 2096,
      "Ġprograma": 2097,
      "Ġwithout": 2098,
      "arlo": 2099,
      "Ġcomer": 2100,
      "Ġdifer": 2101,
      "On": 2102,
      "uh": 2103,
      "Ġthings": 2104,
      "Ġ30": 2105,
      "Ġarr": 2106,
      "ĠseÃ±or": 2107,
      "Ya": 2108,
      "ama": 2109,
      "ecciÃ³n": 2110,
      "lly": 2111,
      "IN": 2112,
      "una": 2113,
      "Ġnego": 2114,
      "alth": 2115,
      "uss": 2116,
      "Ġoblig": 2117,
      "Ġpes": 2118,
      "Ġenv": 2119,
      "Ġadd": 2120,
      "ined": 2121,
      "Ġnunca": 2122,
      "encias": 2123,
      "ĠniÃ±os": 2124,
      "Ġ11": 2125,
      "Ġcase": 2126,
      "ĠDirect": 2127,
      "Sin": 2128,
      "ute": 2129,
      "ĠEstado": 2130,
      "__": 2131,
      "erse": 2132,
      "Now": 2133,
      "ola": 2134,
      "Ġsure": 2135,
      "Ġpeque": 2136,
      "Ġcaus": 2137,
      "iness": 2138,
      "Ġmanera": 2139,
      "fici": 2140,
      "ĠComitÃ©": 2141,
      "Is": 2142,
      "Ġdet": 2143,
      "Ġeres": 2144,
      "Ġtienes": 2145,
      "Ġfuera": 2146,
      "Ġenc": 2147,
      "Ġunders": 2148,
      "Ġaway": 2149,
      "iment": 2150,
      "AR": 2151,
      "Una": 2152,
      "Ġbenef": 2153,
      "Ġregard": 2154,
      "Ġboth": 2155,
      "Ġold": 2156,
      "ivil": 2157,
      "Ġorig": 2158,
      "Ġ13": 2159,
      "ism": 2160,
      "Ġlevel": 2161,
      "dos": 2162,
      "isl": 2163,
      "Ġalguien": 2164,
      "Ġimportante": 2165,
      "Ġnive": 2166,
      "ĠMember": 2167,
      "Ġtold": 2168,
      "Ġestablish": 2169,
      "adie": 2170,
      "Ġpreoc": 2171,
      "Ġfre": 2172,
      "abor": 2173,
      "EN": 2174,
      "Ġgar": 2175,
      "Ġempres": 2176,
      "ĠState": 2177,
      "Ġstud": 2178,
      "Ġderecho": 2179,
      "ĠseÃ±": 2180,
      "ants": 2181,
      "ety": 2182,
      "uz": 2183,
      "ently": 2184,
      "Ġprocess": 2185,
      "Ġreun": 2186,
      "atch": 2187,
      "Ġtoda": 2188,
      "Ġobserv": 2189,
      "led": 2190,
      "Ġlocal": 2191,
      "Ġbelieve": 2192,
      "ĠcÃ³mo": 2193,
      "AN": 2194,
      "ics": 2195,
      "Ãºmero": 2196,
      "Ġembar": 2197,
      "Sab": 2198,
      "iado": 2199,
      "tand": 2200,
      "ars": 2201,
      "ienes": 2202,
      "emÃ¡s": 2203,
      "EstÃ¡": 2204,
      "Ġses": 2205,
      "Ġenerg": 2206,
      "li": 2207,
      "ĠIntern": 2208,
      "Ġcum": 2209,
      "Ġotras": 2210,
      "Ġdocument": 2211,
      "ables": 2212,
      "ah": 2213,
      "ĠpodrÃŃa": 2214,
      "tonces": 2215,
      "Where": 2216,
      "Ġstand": 2217,
      "Ġcir": 2218,
      "Ġcele": 2219,
      "arÃ¡n": 2220,
      "Ġ14": 2221,
      "jos": 2222,
      "Ġcomb": 2223,
      "Ġjo": 2224,
      "ĠdÃŃas": 2225,
      "alu": 2226,
      "itical": 2227,
      "itos": 2228,
      "Ġeach": 2229,
      "Ġpropos": 2230,
      "âĻ": 2231,
      "Ġhablar": 2232,
      "Tod": 2233,
      "Ġrespect": 2234,
      "ÃŃodo": 2235,
      "lobal": 2236,
      "Ġident": 2237,
      "ĠpÃºbl": 2238,
      "Ġkind": 2239,
      "Ġemp": 2240,
      "osp": 2241,
      "Ġestas": 2242,
      "Ahora": 2243,
      "Ġbest": 2244,
      "Ch": 2245,
      "IS": 2246,
      "chool": 2247,
      "use": 2248,
      "Ġinternacional": 2249,
      "Ġcreo": 2250,
      "Ġhead": 2251,
      "fo": 2252,
      "ining": 2253,
      "Ġstat": 2254,
      "Ġextra": 2255,
      "Ġ17": 2256,
      "Ġdinero": 2257,
      "Ġsm": 2258,
      "Ġdecid": 2259,
      "Ġmas": 2260,
      "ĠâĢĵ": 2261,
      "Ġanother": 2262,
      "cel": 2263,
      "Ġmight": 2264,
      "Ġadv": 2265,
      "ĠPresidente": 2266,
      "Ġspeci": 2267,
      "Ġcualquier": 2268,
      "orm": 2269,
      "ÃŃf": 2270,
      "âĻª": 2271,
      "Ã¡t": 2272,
      "vention": 2273,
      "Ġtest": 2274,
      "Ġindic": 2275,
      "ades": 2276,
      "Ġwithin": 2277,
      "Ġdecision": 2278,
      "ĠCo": 2279,
      "cre": 2280,
      "Ġinde": 2281,
      "itut": 2282,
      "Ġpreocup": 2283,
      "unt": 2284,
      "gas": 2285,
      "ĠperÃŃodo": 2286,
      "wh": 2287,
      "Ġperiod": 2288,
      "Ġtechn": 2289,
      "eace": 2290,
      "Este": 2291,
      "ĠserÃ¡": 2292,
      "Ġmujeres": 2293,
      "ash": 2294,
      "Ġlead": 2295,
      "ĠDec": 2296,
      "Ġdecis": 2297,
      "Cuando": 2298,
      "kes": 2299,
      "Ġcier": 2300,
      "Ġefect": 2301,
      "ention": 2302,
      "ĠInd": 2303,
      "ense": 2304,
      "porte": 2305,
      "Ġ16": 2306,
      "Ãºs": 2307,
      "Hay": 2308,
      "umento": 2309,
      "Ġmarket": 2310,
      "Ġmoney": 2311,
      "Ġcorre": 2312,
      "Ġsector": 2313,
      "enci": 2314,
      "Ġchar": 2315,
      "Who": 2316,
      "Ġred": 2317,
      "Ġproyecto": 2318,
      "ased": 2319,
      "Ġtenemos": 2320,
      "Ġincluding": 2321,
      "ÃŃamos": 2322,
      "Ġig": 2323,
      "Ġpop": 2324,
      "Ġindustr": 2325,
      "isis": 2326,
      "ready": 2327,
      "amp": 2328,
      "onces": 2329,
      "raciÃ³n": 2330,
      "air": 2331,
      "Ã³r": 2332,
      "Ġfamily": 2333,
      "ood": 2334,
      "cado": 2335,
      "AT": 2336,
      "cido": 2337,
      "Ġpadre": 2338,
      "Ġsegun": 2339,
      "Ġpoder": 2340,
      "Ġdone": 2341,
      "arias": 2342,
      "Ġunderstand": 2343,
      "Ġencu": 2344,
      "clus": 2345,
      "Ġste": 2346,
      "Ġaccord": 2347,
      "Ġpresente": 2348,
      "Ġmot": 2349,
      "Ġdeclar": 2350,
      "ny": 2351,
      "Ġesc": 2352,
      "Ġhouse": 2353,
      "emplo": 2354,
      "mend": 2355,
      "ĠInter": 2356,
      "Ġfuncion": 2357,
      "Ġsecond": 2358,
      "ueb": 2359,
      "ĠEU": 2360,
      "ĠUniÃ³n": 2361,
      "Ġsit": 2362,
      "Let": 2363,
      "Ġconse": 2364,
      "olo": 2365,
      "izo": 2366,
      "Ġrequire": 2367,
      "Ġcontinu": 2368,
      "Ġinterest": 2369,
      "ativas": 2370,
      "Hey": 2371,
      "Ġrem": 2372,
      "ount": 2373,
      "Ġgus": 2374,
      "Ġton": 2375,
      "ctor": 2376,
      "Ġalready": 2377,
      "Ġsac": 2378,
      "Ġprob": 2379,
      "embers": 2380,
      "ĠmÃ©": 2381,
      "Ġcare": 2382,
      "ificaciÃ³n": 2383,
      "Ġgen": 2384,
      "Ġwee": 2385,
      "Ġposible": 2386,
      "gres": 2387,
      "Ġrecon": 2388,
      "quÃ©": 2389,
      "Ġactividades": 2390,
      "ency": 2391,
      "Ġfacil": 2392,
      "ĠPart": 2393,
      "ĠAmer": 2394,
      "Ġintegr": 2395,
      "Ġgener": 2396,
      "Ġconta": 2397,
      "ientras": 2398,
      "Ġhumanos": 2399,
      "Ġfil": 2400,
      "ont": 2401,
      "Ġdifferent": 2402,
      "ursos": 2403,
      "any": 2404,
      "Ġopen": 2405,
      "Como": 2406,
      "venciÃ³n": 2407,
      "Ġnatural": 2408,
      "Ġdispos": 2409,
      "ÃŃtic": 2410,
      "Ġhij": 2411,
      "Ġwhile": 2412,
      "anc": 2413,
      "ierra": 2414,
      "Ġminut": 2415,
      "ĠahÃŃ": 2416,
      "Ġrecib": 2417,
      "ason": 2418,
      "Ġsiento": 2419,
      "amento": 2420,
      "Ġlegisl": 2421,
      "Ġentonces": 2422,
      "Ġsince": 2423,
      "Entonces": 2424,
      "AS": 2425,
      "ĠpolÃŃtica": 2426,
      "Ġprovis": 2427,
      "Ġcivil": 2428,
      "Ġseman": 2429,
      "porta": 2430,
      "Ġloc": 2431,
      "Ġduring": 2432,
      "11": 2433,
      "Ġ25": 2434,
      "Ġbig": 2435,
      "ĠFran": 2436,
      "Ġrespecto": 2437,
      "Ġ198": 2438,
      "II": 2439,
      "Ġprimera": 2440,
      "ix": 2441,
      "Ġbor": 2442,
      "Ġprimer": 2443,
      "Ġmedio": 2444,
      "gar": 2445,
      "Ġi": 2446,
      "Ġproject": 2447,
      "Ġproblema": 2448,
      "gl": 2449,
      "Ġfollowing": 2450,
      "oss": 2451,
      "the": 2452,
      "eza": 2453,
      "ĠEx": 2454,
      "Ġmain": 2455,
      "ID": 2456,
      "ela": 2457,
      "Ġrecord": 2458,
      "Ġ0": 2459,
      "Ġkid": 2460,
      "ĠaplicaciÃ³n": 2461,
      "izar": 2462,
      "eno": 2463,
      "ĠsituaciÃ³n": 2464,
      "ised": 2465,
      "\",": 2466,
      "ecer": 2467,
      "cha": 2468,
      "Pro": 2469,
      "ĠEuropea": 2470,
      "Ġsir": 2471,
      "Ġleft": 2472,
      "Ġagre": 2473,
      "Ġembargo": 2474,
      "rael": 2475,
      "ĠeconÃ³m": 2476,
      "Su": 2477,
      "Ġpuedes": 2478,
      "Ġhoy": 2479,
      "Ġtoday": 2480,
      "Estoy": 2481,
      "Ġpag": 2482,
      "Ġsabes": 2483,
      "ĠCar": 2484,
      "Ġmonth": 2485,
      "table": 2486,
      "Ġpues": 2487,
      "ivid": 2488,
      "ĠUnion": 2489,
      "uras": 2490,
      "Ġnec": 2491,
      "ake": 2492,
      "ifica": 2493,
      "elo": 2494,
      "cimiento": 2495,
      "12": 2496,
      "eter": 2497,
      "Ġservicios": 2498,
      "men": 2499,
      "Ġtermin": 2500,
      "ecu": 2501,
      "Ġdice": 2502,
      "mer": 2503,
      "Ġtrad": 2504,
      "ĠLo": 2505,
      "Ġperf": 2506,
      "tes": 2507,
      "ya": 2508,
      "cios": 2509,
      "oking": 2510,
      "Ġur": 2511,
      "urther": 2512,
      "Ġpay": 2513,
      "Ġnothing": 2514,
      "ala": 2515,
      "Ġpunto": 2516,
      "Ġherman": 2517,
      "ird": 2518,
      "Ġeverything": 2519,
      "anto": 2520,
      "Ġopin": 2521,
      "ĠÃ": 2522,
      "ecut": 2523,
      "Ġviv": 2524,
      "ium": 2525,
      "ply": 2526,
      "Ġpract": 2527,
      "At": 2528,
      "gether": 2529,
      "peci": 2530,
      "anos": 2531,
      "Ã±ana": 2532,
      "OM": 2533,
      "Ġcourse": 2534,
      "ĠnÃºmero": 2535,
      "terior": 2536,
      "Ġparece": 2537,
      "Ġmeasures": 2538,
      "ombres": 2539,
      "Ġconoci": 2540,
      "unque": 2541,
      "ized": 2542,
      "Ġjud": 2543,
      "Ġhaciendo": 2544,
      "ches": 2545,
      "Ġnext": 2546,
      "Ġdoesn": 2547,
      "Ġgan": 2548,
      "graph": 2549,
      "Ġrun": 2550,
      "rist": 2551,
      "ances": 2552,
      "Ġclear": 2553,
      "Ġcalled": 2554,
      "iver": 2555,
      "Ġvamos": 2556,
      "Ġrece": 2557,
      "Ġinteres": 2558,
      "Ġschool": 2559,
      "Ġcame": 2560,
      "Ġll": 2561,
      "ĠâĢĶ": 2562,
      "Ġdici": 2563,
      "inas": 2564,
      "erman": 2565,
      "Tengo": 2566,
      "oma": 2567,
      "Ġanim": 2568,
      "Ġestamos": 2569,
      "Ġbase": 2570,
      "echa": 2571,
      "Ġguy": 2572,
      "Ġquiere": 2573,
      "Just": 2574,
      "ples": 2575,
      "Ġclar": 2576,
      "very": 2577,
      "Ġ2006": 2578,
      "Ġcelebr": 2579,
      "Ġbeh": 2580,
      "illa": 2581,
      "Ġroom": 2582,
      "trib": 2583,
      "Ġinstr": 2584,
      "Ġperd": 2585,
      "Ġear": 2586,
      "OR": 2587,
      "Ġtogether": 2588,
      "Ġveces": 2589,
      "Ġalgunos": 2590,
      "Ġimag": 2591,
      "ativo": 2592,
      "ived": 2593,
      "icit": 2594,
      "Ġlot": 2595,
      "ĠFr": 2596,
      "itas": 2597,
      "Ġboy": 2598,
      "Ġinvol": 2599,
      "Ġfal": 2600,
      "Ġnorm": 2601,
      "Creo": 2602,
      "Ġesos": 2603,
      "ession": 2604,
      "Ġspecial": 2605,
      "Ġdicho": 2606,
      "Ġped": 2607,
      "Ġterror": 2608,
      "va": 2609,
      "Ġgarant": 2610,
      "irt": 2611,
      "Look": 2612,
      "Ġayuda": 2613,
      "cir": 2614,
      "Ġworking": 2615,
      "Ġeuro": 2616,
      "Ã©c": 2617,
      "Ġley": 2618,
      "Ġsaber": 2619,
      "Ġmillones": 2620,
      "Ġmeans": 2621,
      "Ġabs": 2622,
      "Ġtaken": 2623,
      "Ġwhole": 2624,
      "ĠtenÃŃa": 2625,
      "Â»": 2626,
      "ĠMe": 2627,
      "vert": 2628,
      "Ġmanag": 2629,
      "ality": 2630,
      "Ġvari": 2631,
      "Ġapplic": 2632,
      "enciÃ³n": 2633,
      "Ġwar": 2634,
      "ĠTH": 2635,
      "work": 2636,
      "Ġdentro": 2637,
      "icia": 2638,
      "Ġofre": 2639,
      "Ġpeace": 2640,
      "Ġbusiness": 2641,
      "Ġhear": 2642,
      "Ġprior": 2643,
      "Ġcosa": 2644,
      "SÃ³lo": 2645,
      "Ġestr": 2646,
      "Ġ2000": 2647,
      "ize": 2648,
      "Ġhacia": 2649,
      "Ġfamilia": 2650,
      "Ġindivid": 2651,
      "Ġpossible": 2652,
      "las": 2653,
      "ally": 2654,
      "Ġhub": 2655,
      "Ġpromo": 2656,
      "onment": 2657,
      "Ġwait": 2658,
      "Ġevalu": 2659,
      "ĠPol": 2660,
      "Ġdefin": 2661,
      "Ġwater": 2662,
      "Ġview": 2663,
      "Ġases": 2664,
      "Ġproblemas": 2665,
      "Ġinclu": 2666,
      "Ġenter": 2667,
      "Ġokay": 2668,
      "Ġfel": 2669,
      "ĠrelaciÃ³n": 2670,
      "Ġmeeting": 2671,
      "Ġgust": 2672,
      "Ġproblem": 2673,
      "Ġredu": 2674,
      "Ġpalab": 2675,
      "inos": 2676,
      "Ex": 2677,
      "Ġfig": 2678,
      "Ġfew": 2679,
      "Ãīl": 2680,
      "Ġhijo": 2681,
      "Ġnivel": 2682,
      "Ġmult": 2683,
      "Ã¡nd": 2684,
      "Quiero": 2685,
      "ÃŃr": 2686,
      "Ġpur": 2687,
      "Ġpost": 2688,
      "igos": 2689,
      "Ġleave": 2690,
      "Ġhon": 2691,
      "Ġpaz": 2692,
      "Ġturn": 2693,
      "Ġjob": 2694,
      "Ġgob": 2695,
      "Ġsecurity": 2696,
      "omin": 2697,
      "anda": 2698,
      "ĠConfer": 2699,
      "Ġdays": 2700,
      "ĠSÃŃ": 2701,
      "mar": 2702,
      "Yes": 2703,
      "Ġsorry": 2704,
      "zas": 2705,
      "Ġproceso": 2706,
      "Ġ$": 2707,
      "Ġpasado": 2708,
      "Ġbuena": 2709,
      "Ġmind": 2710,
      "Ġapoyo": 2711,
      "ng": 2712,
      "ĠresoluciÃ³n": 2713,
      "ĠmaÃ±ana": 2714,
      "my": 2715,
      "ified": 2716,
      "ĠHuman": 2717,
      "Ġconsult": 2718,
      "Ġ2004": 2719,
      "ĠReglamento": 2720,
      "Ġgl": 2721,
      "Ġmur": 2722,
      "Ġpower": 2723,
      "atic": 2724,
      "Ġorden": 2725,
      "Ã¡p": 2726,
      "ources": 2727,
      "Mr": 2728,
      "Ġplease": 2729,
      "Ġatt": 2730,
      "ĠArticle": 2731,
      "Ġ2005": 2732,
      "IC": 2733,
      "Ġmadre": 2734,
      "bs": 2735,
      "Ġnadie": 2736,
      "199": 2737,
      "ried": 2738,
      "Ġdro": 2739,
      "Ġcumpl": 2740,
      "resp": 2741,
      "ĠNor": 2742,
      "irÃ¡": 2743,
      "Ġmove": 2744,
      "frica": 2745,
      "Ġeconomic": 2746,
      "los": 2747,
      "Ġconform": 2748,
      "Ġadministr": 2749,
      "ques": 2750,
      "Ġrecog": 2751,
      "ĠaÃºn": 2752,
      "ction": 2753,
      "Ġjur": 2754,
      "ude": 2755,
      "ights": 2756,
      "medi": 2757,
      "ĠRegulation": 2758,
      "Ġtendr": 2759,
      "Ġoportun": 2760,
      "outh": 2761,
      "Ġtras": 2762,
      "Ġnacional": 2763,
      "almente": 2764,
      "Ġhour": 2765,
      "pre": 2766,
      "enda": 2767,
      "gos": 2768,
      "Ġallow": 2769,
      "of": 2770,
      "Ġhard": 2771,
      "Ġtus": 2772,
      "Ġcur": 2773,
      "Ġpersona": 2774,
      "ĠAss": 2775,
      "Ġigual": 2776,
      "ublic": 2777,
      "Ġfar": 2778,
      "Ġampl": 2779,
      "Ġmov": 2780,
      "Ġunivers": 2781,
      "Ġparty": 2782,
      "Ġpot": 2783,
      "ibilidad": 2784,
      "ĠallÃŃ": 2785,
      "Ġcondit": 2786,
      "ĠOh": 2787,
      "Ġhealth": 2788,
      "Ġacer": 2789,
      "ĠJun": 2790,
      "Ġol": 2791,
      "Ġquieres": 2792,
      "eder": 2793,
      "ibles": 2794,
      "Ġwanted": 2795,
      "ohn": 2796,
      "ĠGob": 2797,
      "Ġmuchos": 2798,
      "ane": 2799,
      "ĠpolÃŃtic": 2800,
      "undial": 2801,
      "Ġresolution": 2802,
      "Ġtook": 2803,
      "Ġarea": 2804,
      "Ġpasa": 2805,
      "uv": 2806,
      "ĠprÃ¡ct": 2807,
      "gg": 2808,
      "not": 2809,
      "ulo": 2810,
      "Ġbajo": 2811,
      "Ġasist": 2812,
      "Ġ24": 2813,
      "ibun": 2814,
      "Ġchange": 2815,
      "Ġpolitical": 2816,
      "Ġmembers": 2817,
      "Ġmand": 2818,
      "alf": 2819,
      "Ġconoc": 2820,
      "ironment": 2821,
      "Ġquestion": 2822,
      "Ġbad": 2823,
      "ically": 2824,
      "iante": 2825,
      "acter": 2826,
      "Ġtreat": 2827,
      "ĠNew": 2828,
      "ately": 2829,
      "Ġpodemos": 2830,
      "day": 2831,
      "Ġlabor": 2832,
      "Ġvas": 2833,
      "Ġcoming": 2834,
      "Ġsignific": 2835,
      "ped": 2836,
      "Ġsat": 2837,
      "ison": 2838,
      "ilar": 2839,
      "ugh": 2840,
      "Ġhemos": 2841,
      "ization": 2842,
      "cas": 2843,
      "Ġbueno": 2844,
      "ĠGu": 2845,
      "Ġconsum": 2846,
      "Ġnecess": 2847,
      "Ġden": 2848,
      "uclear": 2849,
      "Ġproductos": 2850,
      "ĠFor": 2851,
      "Ġprev": 2852,
      "Ġcommun": 2853,
      "ÃŃst": 2854,
      "llos": 2855,
      "eck": 2856,
      "Ã³g": 2857,
      "ield": 2858,
      "ti": 2859,
      "Ġactivities": 2860,
      "Ġhizo": 2861,
      "Ġ2002": 2862,
      "ĠSan": 2863,
      "Ġregional": 2864,
      "Ar": 2865,
      "Ġelse": 2866,
      "icaciÃ³n": 2867,
      "ĠDE": 2868,
      "Ġemple": 2869,
      "af": 2870,
      "Ġenough": 2871,
      "raz": 2872,
      "ually": 2873,
      "Ġdatos": 2874,
      "Ġseen": 2875,
      "Ġrad": 2876,
      "ĠCor": 2877,
      "emente": 2878,
      "Ġintro": 2879,
      "Ġnuestros": 2880,
      "Ġvig": 2881,
      "ists": 2882,
      "Ġdeben": 2883,
      "Ġdie": 2884,
      "ĠWor": 2885,
      "Ġdep": 2886,
      "Ġejemplo": 2887,
      "Ġsaf": 2888,
      "wer": 2889,
      "Ġpolicy": 2890,
      "Ġmus": 2891,
      "Ġeffor": 2892,
      "Ġpret": 2893,
      "iba": 2894,
      "Ġlan": 2895,
      "Ġ2001": 2896,
      "Ġpen": 2897,
      "Ġagua": 2898,
      "Ġsecret": 2899,
      "ibility": 2900,
      "Ġrecursos": 2901,
      "Ġgusta": 2902,
      "Ġlive": 2903,
      "Ġread": 2904,
      "Ġservices": 2905,
      "Ġcertain": 2906,
      "Ġdig": 2907,
      "ocr": 2908,
      "avÃŃa": 2909,
      "xim": 2910,
      "Ġcurr": 2911,
      "Ġdev": 2912,
      "atro": 2913,
      "Ġhoras": 2914,
      "ĠCan": 2915,
      "hib": 2916,
      "Ġinstitu": 2917,
      "ĠThat": 2918,
      "Ġesf": 2919,
      "Ġ2007": 2920,
      "Ġfinancial": 2921,
      "âĢľ": 2922,
      "Ġimpro": 2923,
      "ĠDes": 2924,
      "Ġesas": 2925,
      "AD": 2926,
      "Ġtrav": 2927,
      "Ġbring": 2928,
      "Ġespeci": 2929,
      "Ġfather": 2930,
      "IT": 2931,
      "ĠMay": 2932,
      "Ġencuent": 2933,
      "isto": 2934,
      "Ġhaya": 2935,
      "15": 2936,
      "Not": 2937,
      "Ġsituation": 2938,
      "Ġmaterial": 2939,
      "ÂŃ": 2940,
      "Ġalm": 2941,
      "Ġseem": 2942,
      "ief": 2943,
      "thers": 2944,
      "Ġassist": 2945,
      "AC": 2946,
      "AL": 2947,
      "Ġstay": 2948,
      "sted": 2949,
      "ended": 2950,
      "Ġdead": 2951,
      "Ġcoordin": 2952,
      "sed": 2953,
      "eras": 2954,
      "Ġinici": 2955,
      "ĠdeberÃŃa": 2956,
      "Ġdesign": 2957,
      "Ġmisma": 2958,
      "ĠGobierno": 2959,
      "Ġvolver": 2960,
      "ostr": 2961,
      "aban": 2962,
      "ules": 2963,
      "ĠX": 2964,
      "Ġago": 2965,
      "ern": 2966,
      "less": 2967,
      "Ġmir": 2968,
      "Ġunos": 2969,
      "Ġsino": 2970,
      "liament": 2971,
      "Ġuntil": 2972,
      "ily": 2973,
      "ira": 2974,
      "aces": 2975,
      "Ġabr": 2976,
      "Ġmillion": 2977,
      "Your": 2978,
      "Ġcorr": 2979,
      "Ġlogr": 2980,
      "oca": 2981,
      "Ġvisto": 2982,
      "Ġello": 2983,
      "Ġintent": 2984,
      "ono": 2985,
      "Ġsomeone": 2986,
      "Ġrecommend": 2987,
      "tle": 2988,
      "ĠIsrael": 2989,
      "Ġdeal": 2990,
      "ĠÂ«": 2991,
      "ĠlÃŃ": 2992,
      "Ġhabit": 2993,
      "May": 2994,
      "ĠquiÃ©n": 2995,
      "Ġnon": 2996,
      "Ġ2003": 2997,
      "Ġglobal": 2998,
      "ĠtravÃ©s": 2999,
      "Ġrema": 3000,
      "Ġvia": 3001,
      "amble": 3002,
      "ĠCommunity": 3003,
      "Ġleast": 3004,
      "by": 3005,
      "gin": 3006,
      "ĠpÃ¡r": 3007,
      "Ġhombres": 3008,
      "Ġregion": 3009,
      "Ġmatter": 3010,
      "Ġdec": 3011,
      "Ġcomprom": 3012,
      "Ġaccess": 3013,
      "Ġrep": 3014,
      "Ġjun": 3015,
      "TambiÃ©n": 3016,
      "Ġgiven": 3017,
      "Ġfull": 3018,
      "Ġheart": 3019,
      "quiera": 3020,
      "Ġbuild": 3021,
      "Pod": 3022,
      "els": 3023,
      "elf": 3024,
      "Ġris": 3025,
      "ĠSu": 3026,
      "30": 3027,
      "ets": 3028,
      "Ġindepend": 3029,
      "Vamos": 3030,
      "lan": 3031,
      "Ġwent": 3032,
      "Ġelectr": 3033,
      "Ġsmall": 3034,
      "ges": 3035,
      "Ġdivers": 3036,
      "Ġluego": 3037,
      "Ġquien": 3038,
      "Ġfundament": 3039,
      "ĠÃ¡": 3040,
      "Ġmother": 3041,
      "Ġbit": 3042,
      "ĠCent": 3043,
      "Ġneeds": 3044,
      "Ġprovide": 3045,
      "Ġrequest": 3046,
      "Ġseguro": 3047,
      "Ġexact": 3048,
      "Ġru": 3049,
      "Ġaddress": 3050,
      "Ġdire": 3051,
      "Ġmedic": 3052,
      "With": 3053,
      "Ġfurther": 3054,
      "ither": 3055,
      "Ġeas": 3056,
      "uda": 3057,
      "crimin": 3058,
      "lex": 3059,
      "Ġespa": 3060,
      "Ġ2008": 3061,
      "Rec": 3062,
      "Ġprofes": 3063,
      "ength": 3064,
      "Ġless": 3065,
      "Ġenfer": 3066,
      "Ġlegal": 3067,
      "ajor": 3068,
      "Ġempe": 3069,
      "Ġaddit": 3070,
      "Ġmientras": 3071,
      "ĠBar": 3072,
      "Ġprogramas": 3073,
      "Ġaprob": 3074,
      "ush": 3075,
      "Ġanal": 3076,
      "Are": 3077,
      "ley": 3078,
      "Ġgovernment": 3079,
      "bol": 3080,
      "Ġamigo": 3081,
      "Ġconstitu": 3082,
      "iet": 3083,
      "Ġcorresp": 3084,
      "Ġavail": 3085,
      "Ġcin": 3086,
      "Ġrest": 3087,
      "Ġyet": 3088,
      "ĠrazÃ³n": 3089,
      "ĠGovernment": 3090,
      "??": 3091,
      "Ġfriend": 3092,
      "General": 3093,
      "ĠDr": 3094,
      "Ġstop": 3095,
      "ential": 3096,
      "gress": 3097,
      "ĠUnidos": 3098,
      "Ġsabe": 3099,
      "yo": 3100,
      "Ġhici": 3101,
      "ards": 3102,
      "embly": 3103,
      "ain": 3104,
      "uary": 3105,
      "Ġhaving": 3106,
      "Ġonce": 3107,
      "Ġty": 3108,
      "Ġdepend": 3109,
      "Ġsuc": 3110,
      "Ġtalking": 3111,
      "Ġsesiones": 3112,
      "Ġlooking": 3113,
      "Ġwrong": 3114,
      "Ġgrupo": 3115,
      "Ġ50": 3116,
      "Ġtarde": 3117,
      "ĠOrgan": 3118,
      "Ġante": 3119,
      "Ġfueron": 3120,
      "erta": 3121,
      "ences": 3122,
      "soci": 3123,
      "lict": 3124,
      "Ġsl": 3125,
      "Ġbud": 3126,
      "Ġhacerlo": 3127,
      "ique": 3128,
      "Ġencontrar": 3129,
      "Ġsk": 3130,
      "Ac": 3131,
      "Ġimporta": 3132,
      "QuiÃ©n": 3133,
      "Ã¡g": 3134,
      "Did": 3135,
      "Ġauto": 3136,
      "ental": 3137,
      "ĠEuropa": 3138,
      "ĠcuestiÃ³n": 3139,
      "Ġdemas": 3140,
      "ĠCol": 3141,
      "ĠJes": 3142,
      "Ġhora": 3143,
      "Ġgroup": 3144,
      "Ġide": 3145,
      "Ġfour": 3146,
      "Ġsimple": 3147,
      "Ġdise": 3148,
      "Ġhappened": 3149,
      "dic": 3150,
      "Ġair": 3151,
      "aut": 3152,
      "Ġgas": 3153,
      "Ã±as": 3154,
      "dico": 3155,
      "ĠDo": 3156,
      "Ġnecesit": 3157,
      "amblea": 3158,
      "Ġable": 3159,
      "Ġrela": 3160,
      "Ġreform": 3161,
      "ĠRo": 3162,
      "ology": 3163,
      "Ġocup": 3164,
      "alk": 3165,
      "Ġpobl": 3166,
      "icult": 3167,
      "ilo": 3168,
      "Ġisn": 3169,
      "Ġsaw": 3170,
      "Ġimplementation": 3171,
      "Ġcondiciones": 3172,
      "Okay": 3173,
      "Ġrelig": 3174,
      "Ġprovided": 3175,
      "Ġland": 3176,
      "Ġhabr": 3177,
      "Ġnueva": 3178,
      "Ġmag": 3179,
      "edad": 3180,
      "uring": 3181,
      "Ella": 3182,
      "Then": 3183,
      "Ã©cn": 3184,
      "Ġvict": 3185,
      "Ġvac": 3186,
      "Ġneg": 3187,
      "cle": 3188,
      "Ġnuclear": 3189,
      "Ġlado": 3190,
      "Ġalguna": 3191,
      "Ġluch": 3192,
      "âĢĿ.": 3193,
      "iles": 3194,
      "xto": 3195,
      "gÃºn": 3196,
      "Ġbody": 3197,
      "OU": 3198,
      "aving": 3199,
      "Sabes": 3200,
      "Ġgre": 3201,
      "Ġhope": 3202,
      "Ġcommit": 3203,
      "ĠrÃ¡p": 3204,
      "Ġdirig": 3205,
      "loy": 3206,
      "Ġgetting": 3207,
      "Ġ21": 3208,
      "Ġhar": 3209,
      "Ġwin": 3210,
      "ĠCr": 3211,
      "Ġconsegu": 3212,
      "Ġchang": 3213,
      "Can": 3214,
      "Ġhistoria": 3215,
      "Ġfree": 3216,
      "nex": 3217,
      "Ġnecessary": 3218,
      "Ġcho": 3219,
      "Ġalgunas": 3220,
      "Ġvan": 3221,
      "Ġsalud": 3222,
      "Ġguys": 3223,
      "Ġreserv": 3224,
      "Ġfood": 3225,
      "Ġobject": 3226,
      "Ġposit": 3227,
      "irm": 3228,
      "Ġach": 3229,
      "Ġgrow": 3230,
      "ecause": 3231,
      "Ãºblica": 3232,
      "Ã³lar": 3233,
      "Ġamor": 3234,
      "ĠChrist": 3235,
      "Ġguer": 3236,
      "Ġtrying": 3237,
      "Ġsufici": 3238,
      "Ġensure": 3239,
      "Ġdeleg": 3240,
      "TÃº": 3241,
      "Ġwish": 3242,
      "Ġcant": 3243,
      "Ġinit": 3244,
      "tin": 3245,
      "OS": 3246,
      "stitu": 3247,
      "Ġfuture": 3248,
      "Ġos": 3249,
      "Ġareas": 3250,
      "Ġcuer": 3251,
      "inar": 3252,
      "Ġtaking": 3253,
      "Ġconven": 3254,
      "usto": 3255,
      "Ġsiguiente": 3256,
      "Ġcapital": 3257,
      "ĠInternational": 3258,
      "ecn": 3259,
      "vious": 3260,
      "Ġweek": 3261,
      "ged": 3262,
      "ĠJul": 3263,
      "Ġrealmente": 3264,
      "Ġcul": 3265,
      "Has": 3266,
      "ĠParlamento": 3267,
      "Todo": 3268,
      "Ġprogramme": 3269,
      "uff": 3270,
      "Ġaw": 3271,
      "Ġpien": 3272,
      "irse": 3273,
      "ĠEm": 3274,
      "ĠpolicÃŃa": 3275,
      "aÃ±": 3276,
      "Ġhosp": 3277,
      "Ġparagraph": 3278,
      "ĠAsamblea": 3279,
      "Ġmercado": 3280,
      "Usted": 3281,
      "ĠprotecciÃ³n": 3282,
      "One": 3283,
      "ĠComun": 3284,
      "Ġsan": 3285,
      "OP": 3286,
      "irit": 3287,
      "ably": 3288,
      "ĠConvention": 3289,
      "Ġprote": 3290,
      "illo": 3291,
      "Ġdebate": 3292,
      "Ġremember": 3293,
      "ĠdÃ³lar": 3294,
      "Ġsing": 3295,
      "Ġ22": 3296,
      "Porque": 3297,
      "atives": 3298,
      "ides": 3299,
      "Ġperman": 3300,
      "her": 3301,
      "ĠTe": 3302,
      "Ġrealidad": 3303,
      "Ġtrata": 3304,
      "Ġuso": 3305,
      "Ġbecome": 3306,
      "ements": 3307,
      "Ġapr": 3308,
      "ĠQu": 3309,
      "istro": 3310,
      "ĠprÃ³": 3311,
      "abr": 3312,
      "ĠAc": 3313,
      "Ġ100": 3314,
      "Ġ%": 3315,
      "eron": 3316,
      "Ġgest": 3317,
      "ĠSeÃ±or": 3318,
      "igr": 3319,
      "Ġgracias": 3320,
      "ĠdÃ³nde": 3321,
      "Bien": 3322,
      "Ġaction": 3323,
      "ĠMa": 3324,
      "ueblo": 3325,
      "mes": 3326,
      "Ġconm": 3327,
      "Ġenvironment": 3328,
      "Ġsens": 3329,
      "Ġcover": 3330,
      "Ġvisit": 3331,
      "ĠdecisiÃ³n": 3332,
      "ĠPa": 3333,
      "ivas": 3334,
      "Ġdeath": 3335,
      "Ġreason": 3336,
      "osa": 3337,
      "ĠSocial": 3338,
      "isf": 3339,
      "ĠSp": 3340,
      "ula": 3341,
      "Ġsw": 3342,
      "Ġappe": 3343,
      "ray": 3344,
      "These": 3345,
      "iends": 3346,
      "Ġcapacidad": 3347,
      "Ġamong": 3348,
      "Ġ#": 3349,
      "Ġpropor": 3350,
      "Ġwasn": 3351,
      "Ġequip": 3352,
      "ĠcooperaciÃ³n": 3353,
      "Tu": 3354,
      "sa": 3355,
      "ĠAssembly": 3356,
      "Ġcooperation": 3357,
      "AdemÃ¡s": 3358,
      "Ġdoctor": 3359,
      "ĠJohn": 3360,
      "Ġincluy": 3361,
      "Ġlater": 3362,
      "Ġeurope": 3363,
      "ched": 3364,
      "ĠMed": 3365,
      "ĠPal": 3366,
      "Ġapartado": 3367,
      "inking": 3368,
      "ucciÃ³n": 3369,
      "ats": 3370,
      "Ġindividual": 3371,
      "ĠHow": 3372,
      "iso": 3373,
      "ision": 3374,
      "ĠMan": 3375,
      "amÃ¡": 3376,
      "Ġsalv": 3377,
      "aja": 3378,
      "Ġpast": 3379,
      "Ġacab": 3380,
      "ĠtÃ©cn": 3381,
      "ames": 3382,
      "ho": 3383,
      "Ġcamino": 3384,
      "ensa": 3385,
      "come": 3386,
      "Ġbal": 3387,
      "Ġcontain": 3388,
      "Ġbast": 3389,
      "Ġcannot": 3390,
      "Ġfall": 3391,
      "Ġexpect": 3392,
      "earch": 3393,
      "ification": 3394,
      "Ġlear": 3395,
      "ims": 3396,
      "azo": 3397,
      "ologÃŃa": 3398,
      "vers": 3399,
      "Ġcompar": 3400,
      "ibunal": 3401,
      "Ġwoman": 3402,
      "ĠfÃ¡": 3403,
      "Ġann": 3404,
      "Ġsepar": 3405,
      "Ġpartes": 3406,
      "rim": 3407,
      "abilidad": 3408,
      "Some": 3409,
      "ĠParliament": 3410,
      "Ġdata": 3411,
      "Ġmeses": 3412,
      "Ġesfuer": 3413,
      "ror": 3414,
      "Ġdejar": 3415,
      "Ġinfl": 3416,
      "Ġmajor": 3417,
      "Ġuh": 3418,
      "ĠEcon": 3419,
      "Ġtomar": 3420,
      "ove": 3421,
      "Ġcora": 3422,
      "Ġresources": 3423,
      "Ġprotect": 3424,
      "Ġdraft": 3425,
      "Ġsust": 3426,
      "Ġavailable": 3427,
      "ĠDer": 3428,
      "racias": 3429,
      "Ġmoment": 3430,
      "ĠProgram": 3431,
      "Ġvent": 3432,
      "Ġescuch": 3433,
      "Ġseguir": 3434,
      "zos": 3435,
      "orn": 3436,
      "ĠBo": 3437,
      "let": 3438,
      "Ġproducts": 3439,
      "Ġyoung": 3440,
      "Ġarreg": 3441,
      "Ġmediante": 3442,
      "uros": 3443,
      "posed": 3444,
      "ĠChina": 3445,
      "Ġpron": 3446,
      "Ġbab": 3447,
      "tocol": 3448,
      "Ġhotel": 3449,
      "Ġban": 3450,
      "ĠPor": 3451,
      "crip": 3452,
      "Ġcrisis": 3453,
      "uales": 3454,
      "oles": 3455,
      "Ġapar": 3456,
      "Ġsolicit": 3457,
      "ĠvÃŃ": 3458,
      "anza": 3459,
      "ativos": 3460,
      "ĠatenciÃ³n": 3461,
      "ĠserÃŃa": 3462,
      "Soy": 3463,
      "Ġtry": 3464,
      "Ġheard": 3465,
      "Ġnacionales": 3466,
      "Ġ23": 3467,
      "Ġayudar": 3468,
      "Ġdemasiado": 3469,
      "ĠSal": 3470,
      "Ġatta": 3471,
      "ump": 3472,
      "Ġequipo": 3473,
      "Ġdije": 3474,
      "Ġconflict": 3475,
      "ĠDep": 3476,
      "Ġsum": 3477,
      "ired": 3478,
      "ĠdÃ³lares": 3479,
      "50": 3480,
      "Ġnecesario": 3481,
      "Ġinstitut": 3482,
      "Ġoffer": 3483,
      "Ġcity": 3484,
      "idence": 3485,
      "Ġdispon": 3486,
      "ĠBut": 3487,
      "Ġcommon": 3488,
      "Ġmaking": 3489,
      "Ġacerca": 3490,
      "Ġsemana": 3491,
      "Ġface": 3492,
      "Ġtur": 3493,
      "Ġed": 3494,
      "ĠalgÃºn": 3495,
      "Ġ31": 3496,
      "ases": 3497,
      "oura": 3498,
      "ival": 3499,
      "Ġorganizaciones": 3500,
      "bern": 3501,
      "ĠdifÃŃ": 3502,
      "Ġhold": 3503,
      "imas": 3504,
      "Ġclos": 3505,
      "Ġinternacionales": 3506,
      "Ġlight": 3507,
      "Ġcambio": 3508,
      "Ġconmigo": 3509,
      "selves": 3510,
      "ĠCl": 3511,
      "ĠUS": 3512,
      "ĠAg": 3513,
      "Ġponer": 3514,
      "das": 3515,
      "ners": 3516,
      "Ġyourself": 3517,
      "ĠâĻª": 3518,
      "ĠMon": 3519,
      "ĠMinister": 3520,
      "Ġense": 3521,
      "aced": 3522,
      "ĠTo": 3523,
      "imientos": 3524,
      "Ġsho": 3525,
      "ĠSecretary": 3526,
      "Ha": 3527,
      "ĠOff": 3528,
      "Ġpolice": 3529,
      "edor": 3530,
      "Ġmodo": 3531,
      "ĠYork": 3532,
      "Ġtema": 3533,
      "ĠRepublic": 3534,
      "Ġarmas": 3535,
      "erÃŃa": 3536,
      "Ġsiendo": 3537,
      "ectos": 3538,
      "Ġmiss": 3539,
      "Ġmuchas": 3540,
      "Ġconte": 3541,
      "Mira": 3542,
      "ĠGrupo": 3543,
      "wards": 3544,
      "Nos": 3545,
      "Ġinstrument": 3546,
      "Tienes": 3547,
      "ĠJust": 3548,
      "Ġcasos": 3549,
      "ĠinvestigaciÃ³n": 3550,
      "anna": 3551,
      "ED": 3552,
      "ha": 3553,
      "Ġmonths": 3554,
      "ION": 3555,
      "bra": 3556,
      "Ġsatisf": 3557,
      "Ġtherefore": 3558,
      "Ġhospital": 3559,
      "Ġcorrespond": 3560,
      "Ġtimes": 3561,
      "Ġincluso": 3562,
      "Ġprotection": 3563,
      "Ġaument": 3564,
      "Ġhac": 3565,
      "ĠÃģ": 3566,
      "Ġline": 3567,
      "Ġdistrib": 3568,
      "Ġans": 3569,
      "son": 3570,
      "uth": 3571,
      "UN": 3572,
      "Ġvot": 3573,
      "ĠII": 3574,
      "Ġaud": 3575,
      "Ġside": 3576,
      "Ġcontinue": 3577,
      "Ġdue": 3578,
      "Ġpueblo": 3579,
      "ee": 3580,
      "Ġale": 3581,
      "Ġmuerte": 3582,
      "Ġata": 3583,
      "Ġries": 3584,
      "ĠInterna": 3585,
      "Ġrecomend": 3586,
      "14": 3587,
      "Ġju": 3588,
      "Ġstate": 3589,
      "Ġterritor": 3590,
      "Ġninguna": 3591,
      "ĠAll": 3592,
      "Ġsays": 3593,
      "ler": 3594,
      "Ġfriends": 3595,
      "pose": 3596,
      "ĠpÃ¡rra": 3597,
      "13": 3598,
      "Ġsentido": 3599,
      "Ġaliment": 3600,
      "yes": 3601,
      "Ġsession": 3602,
      "ages": 3603,
      "EstÃ¡s": 3604,
      "ode": 3605,
      "iate": 3606,
      "ĠUnivers": 3607,
      "Ġcit": 3608,
      "Ġet": 3609,
      "Ġpueda": 3610,
      "Ġissues": 3611,
      "org": 3612,
      "ste": 3613,
      "Ġfive": 3614,
      "Ġespos": 3615,
      "ĠmayorÃŃa": 3616,
      "icamente": 3617,
      "ĠÃºltimo": 3618,
      "ock": 3619,
      "pes": 3620,
      "ym": 3621,
      "ĠSecretario": 3622,
      "ĠningÃºn": 3623,
      "Ġllegar": 3624,
      "16": 3625,
      "Nunca": 3626,
      "ĠÃ©s": 3627,
      "Ġsever": 3628,
      "Ġproper": 3629,
      "Ġwife": 3630,
      "Ġaccordance": 3631,
      "ĠcompaÃ±": 3632,
      "Ġeducation": 3633,
      "Ġpass": 3634,
      "itud": 3635,
      "Ġ26": 3636,
      "Ġgrandes": 3637,
      "Ġefforts": 3638,
      "Ġ?": 3639,
      "Ġacceso": 3640,
      "Ġregres": 3641,
      "just": 3642,
      "Ġarm": 3643,
      "Ġlista": 3644,
      "ĠSeg": 3645,
      "Ġserious": 3646,
      "ured": 3647,
      "nes": 3648,
      "Ġveh": 3649,
      "DÃ³nde": 3650,
      "Ã©is": 3651,
      "Ġfight": 3652,
      "Ġmess": 3653,
      "dy": 3654,
      "ÃŃdo": 3655,
      "ĠTra": 3656,
      "Ġil": 3657,
      "Ġrelev": 3658,
      "eto": 3659,
      "iza": 3660,
      "Ġservice": 3661,
      "Ġsaying": 3662,
      "Ġelimin": 3663,
      "Ġelement": 3664,
      "Maybe": 3665,
      "Ġ28": 3666,
      "Ġcontigo": 3667,
      "Ġbook": 3668,
      "ĠÃºnico": 3669,
      "Ġrelacion": 3670,
      "ĠCu": 3671,
      "Ġconditions": 3672,
      "Ġustedes": 3673,
      "ending": 3674,
      "ĠtodavÃŃa": 3675,
      "Ġobjetivo": 3676,
      "Ġsubject": 3677,
      "Ġconj": 3678,
      "ĠseÃ±al": 3679,
      "Ġpaci": 3680,
      "Par": 3681,
      "Ġconfer": 3682,
      "Ġempresas": 3683,
      "Ġsoon": 3684,
      "Ġreturn": 3685,
      "Ġcop": 3686,
      "Ġcommunity": 3687,
      "Ġ27": 3688,
      "ablemente": 3689,
      "Ġeng": 3690,
      "aya": 3691,
      "ling": 3692,
      "tail": 3693,
      "Ġgobierno": 3694,
      "Ġarch": 3695,
      "âĢĿ,": 3696,
      "oz": 3697,
      "Ġ197": 3698,
      "âĢĶ": 3699,
      "ĠRes": 3700,
      "Ġtecn": 3701,
      "side": 3702,
      "ĠmÃ¡": 3703,
      "Ġcuatro": 3704,
      "Ãĥ": 3705,
      "Ġhom": 3706,
      "adora": 3707,
      "unci": 3708,
      "Ġhell": 3709,
      "ĠRepÃºblica": 3710,
      "uestas": 3711,
      "Or": 3712,
      "where": 3713,
      "Ġvalor": 3714,
      "Ġstrateg": 3715,
      "Tenemos": 3716,
      "icaciones": 3717,
      "ĠpoblaciÃ³n": 3718,
      "Ġencar": 3719,
      ".,": 3720,
      "Because": 3721,
      "Per": 3722,
      "ww": 3723,
      "Ġforce": 3724,
      "Ġcerca": 3725,
      "Ġadopted": 3726,
      "Ġvista": 3727,
      "Ġmorning": 3728,
      "Ã¡tic": 3729,
      "ĠBe": 3730,
      "Ġknew": 3731,
      "Every": 3732,
      "Ġpresup": 3733,
      "Ġvers": 3734,
      "Ġemerg": 3735,
      "ream": 3736,
      "Ġsegundo": 3737,
      "Ġresultados": 3738,
      "Ġlimit": 3739,
      "Come": 3740,
      "Ġmanten": 3741,
      "Ġasistencia": 3742,
      "iores": 3743,
      "alo": 3744,
      "ĠHar": 3745,
      "adr": 3746,
      "Ġnice": 3747,
      "Ġreach": 3748,
      "iga": 3749,
      "embro": 3750,
      "Ġespec": 3751,
      "ĠquerÃŃa": 3752,
      "ceed": 3753,
      "Ġolv": 3754,
      "Ġvie": 3755,
      "Ġwouldn": 3756,
      "Ġcinco": 3757,
      "Sh": 3758,
      "Ġgol": 3759,
      "utions": 3760,
      "Ġbeaut": 3761,
      "Ġmarco": 3762,
      "Ġstrength": 3763,
      "Ġpapel": 3764,
      "cient": 3765,
      "fter": 3766,
      "However": 3767,
      "Ġlargo": 3768,
      "Ġocc": 3769,
      "line": 3770,
      "rea": 3771,
      "Solo": 3772,
      "Ġmyself": 3773,
      "Ġclass": 3774,
      "Ġdiciembre": 3775,
      "Ġ40": 3776,
      "Ġspecific": 3777,
      "Ġexample": 3778,
      "Ġkilled": 3779,
      "Ġsalir": 3780,
      "Ġconcerned": 3781,
      "Hab": 3782,
      "iales": 3783,
      "Ġrecogn": 3784,
      "Ġtas": 3785,
      "Ġyes": 3786,
      "Ġmanagement": 3787,
      "Ġhours": 3788,
      "Ġtraining": 3789,
      "Ġactually": 3790,
      "ieren": 3791,
      "Ġguard": 3792,
      "Ġevent": 3793,
      "Ġopt": 3794,
      "ondo": 3795,
      "Ġpet": 3796,
      "Ġguerra": 3797,
      "ĠprÃ³x": 3798,
      "Ġhum": 3799,
      "Ġ2009": 3800,
      "Ġconformidad": 3801,
      "ĠMi": 3802,
      "Ġbudget": 3803,
      "Ġbeb": 3804,
      "Ġamigos": 3805,
      "olÃ³g": 3806,
      "Ġsigue": 3807,
      "Ġaseg": 3808,
      "Ġdam": 3809,
      "Ġrom": 3810,
      "Ġmedia": 3811,
      "Ġ:": 3812,
      "Ġdiscrimin": 3813,
      "ury": 3814,
      "Ġtransport": 3815,
      "Ġorganis": 3816,
      "Eres": 3817,
      "Ġwatch": 3818,
      "Ġsignifica": 3819,
      "Ġtre": 3820,
      "Ã¡f": 3821,
      "Ġcomen": 3822,
      "ĠJo": 3823,
      "upos": 3824,
      "Ġheld": 3825,
      "ĠInternacional": 3826,
      "Ġflo": 3827,
      "Ġeffective": 3828,
      "ĠpolÃŃticas": 3829,
      "Ġren": 3830,
      "Ġcalidad": 3831,
      "Ġtop": 3832,
      "Ġcabeza": 3833,
      "Ġrules": 3834,
      "ĠSeguridad": 3835,
      "Ġtrue": 3836,
      "Ġsix": 3837,
      "AM": 3838,
      "Ġmens": 3839,
      "ĠniÃ±o": 3840,
      "Ġcomplete": 3841,
      "Ġservicio": 3842,
      "Ġfuturo": 3843,
      "Ġoportunidad": 3844,
      "adamente": 3845,
      "Ġperform": 3846,
      "urales": 3847,
      "Ġcasi": 3848,
      "Voy": 3849,
      "ĠcorazÃ³n": 3850,
      "rab": 3851,
      "Ġlibert": 3852,
      "Ġdestin": 3853,
      "Ġrat": 3854,
      "Ġconcern": 3855,
      "ares": 3856,
      "Ġstrong": 3857,
      "Ġpud": 3858,
      "Ġbased": 3859,
      "Tr": 3860,
      "rÃŃa": 3861,
      "Ġlost": 3862,
      "Ġlibre": 3863,
      "Ġtransfer": 3864,
      "Ġextre": 3865,
      "Ġsuccess": 3866,
      "abil": 3867,
      "Ġalone": 3868,
      "sh": 3869,
      "Ġmateria": 3870,
      "ĠSi": 3871,
      "ĠHo": 3872,
      "Ġmedios": 3873,
      "ux": 3874,
      "Ġrelations": 3875,
      "Ġ29": 3876,
      "Ġcases": 3877,
      "ening": 3878,
      "Ġsle": 3879,
      "Ġmano": 3880,
      "Ġproblems": 3881,
      "Ġfine": 3882,
      "Ġcat": 3883,
      "Ġbra": 3884,
      "Ġproporcion": 3885,
      "Ġaspect": 3886,
      "âĢ¢": 3887,
      "Ġcuestiones": 3888,
      "Ġnormas": 3889,
      "):": 3890,
      "rop": 3891,
      "ĠÃºltima": 3892,
      "Ġpasar": 3893,
      "Ġtierra": 3894,
      "ĠDon": 3895,
      "Ġpelig": 3896,
      "Ġescr": 3897,
      "ators": 3898,
      "Ġenvi": 3899,
      "Ġbasis": 3900,
      "Ġnet": 3901,
      "Ġestim": 3902,
      "omas": 3903,
      "ĠWorld": 3904,
      "Ġothers": 3905,
      "ĠNa": 3906,
      "ĠDecember": 3907,
      "Ġanex": 3908,
      "Ġwhether": 3909,
      "Ġsociedad": 3910,
      "Ġappropr": 3911,
      "Ġblood": 3912,
      "yn": 3913,
      "Ġcompany": 3914,
      "Ġdemand": 3915,
      "ĠItal": 3916,
      "Ġfalta": 3917,
      "Ġliving": 3918,
      "ĠÃ³r": 3919,
      "Ġwants": 3920,
      "ĠSecurity": 3921,
      "Ġimpres": 3922,
      "Ġsimilar": 3923,
      "ĠThis": 3924,
      "Todos": 3925,
      "ients": 3926,
      "Ġcontact": 3927,
      "ĠTHE": 3928,
      "Ã©g": 3929,
      "ene": 3930,
      "Ġarticle": 3931,
      "Ġcampa": 3932,
      ".âĢĿ": 3933,
      "aps": 3934,
      "Ġintrodu": 3935,
      "onia": 3936,
      "ify": 3937,
      "Ġsound": 3938,
      "ensive": 3939,
      "Ġcierto": 3940,
      "Ġrole": 3941,
      "Ġliber": 3942,
      "Ġreview": 3943,
      "St": 3944,
      "Ġissue": 3945,
      "olid": 3946,
      "ĠGe": 3947,
      "ucking": 3948,
      "____": 3949,
      "trÃ¡s": 3950,
      "Ġalcan": 3951,
      "onas": 3952,
      "Ġsuced": 3953,
      "itary": 3954,
      "Ġejer": 3955,
      "Ġauthorities": 3956,
      "Ġbod": 3957,
      "Ġclose": 3958,
      "Ġeran": 3959,
      "encial": 3960,
      "ĠdifÃŃcil": 3961,
      "Ġdesarroll": 3962,
      "Ġminutos": 3963,
      "Ġautoridades": 3964,
      "Ġnormal": 3965,
      "ueva": 3966,
      "ĠdÃ©": 3967,
      "Ġrespon": 3968,
      "Ġasegur": 3969,
      "Ġconclus": 3970,
      "Ġaccount": 3971,
      "Ġcirc": 3972,
      "ĠJune": 3973,
      "Ġcuerpo": 3974,
      "ĠfÃ¡cil": 3975,
      "ĠJap": 3976,
      "edo": 3977,
      "Ġtown": 3978,
      "Ġsold": 3979,
      "Ġllevar": 3980,
      "ĠGroup": 3981,
      "ĠcomÃºn": 3982,
      "ĠYeah": 3983,
      "Ġnecesidad": 3984,
      "Ġasked": 3985,
      "Ġteach": 3986,
      "rom": 3987,
      "Ġtenido": 3988,
      "ĠCour": 3989,
      "Ġknown": 3990,
      "Ġconcl": 3991,
      "Ġword": 3992,
      "pi": 3993,
      "uciones": 3994,
      "Ġmencion": 3995,
      "Ġdescu": 3996,
      "Ġteam": 3997,
      "Ġmaybe": 3998,
      "Ġsost": 3999,
      "ability": 4000,
      "Ġ1999": 4001,
      "ĠenseÃ±": 4002,
      "ĠpÃ¡rrafo": 4003,
      "Ġbat": 4004,
      "Ġhijos": 4005,
      "ĠMo": 4006,
      "ĠLos": 4007,
      "Ġcla": 4008,
      "Ã¡tica": 4009,
      "Ġhur": 4010,
      "Ġcentral": 4011,
      "Ġorganizations": 4012,
      "ĠTer": 4013,
      "Ġcuanto": 4014,
      "verdad": 4015,
      "Ġadecu": 4016,
      "imen": 4017,
      "trucciÃ³n": 4018,
      "Ġgrupos": 4019,
      "18": 4020,
      "Ġdispar": 4021,
      "Ġmanif": 4022,
      "Ġanyone": 4023,
      "ficult": 4024,
      "Ġfrente": 4025,
      "Ġgave": 4026,
      "ĠdemÃ¡s": 4027,
      "jas": 4028,
      "Deb": 4029,
      "ĠreuniÃ³n": 4030,
      "Ã¡tico": 4031,
      "ĠRights": 4032,
      "Ġupon": 4033,
      "Neces": 4034,
      "Ġofic": 4035,
      "ĠConvenciÃ³n": 4036,
      "Get": 4037,
      "Ġdate": 4038,
      "Ġmakes": 4039,
      "Ġlle": 4040,
      "tran": 4041,
      "antas": 4042,
      "ÃŃnea": 4043,
      "ctu": 4044,
      "Ġobt": 4045,
      "ĠEuropeo": 4046,
      "Ġopportun": 4047,
      "Ġnews": 4048,
      "Ġready": 4049,
      "Ġnear": 4050,
      "ĠsegÃºn": 4051,
      "cito": 4052,
      "Ġoriginal": 4053,
      "Ġaunque": 4054,
      "orrow": 4055,
      "Ġfield": 4056,
      "ĠgestiÃ³n": 4057,
      "more": 4058,
      ");": 4059,
      "NU": 4060,
      "aking": 4061,
      "Ġmem": 4062,
      "Ġhaven": 4063,
      "ustom": 4064,
      "Ġsc": 4065,
      "Ġbegin": 4066,
      "ducciÃ³n": 4067,
      "Ġbaby": 4068,
      "Ġdifficult": 4069,
      "iminal": 4070,
      "Ã¼": 4071,
      "oups": 4072,
      "ificar": 4073,
      "Ġimportancia": 4074,
      "entemente": 4075,
      "Ġbreak": 4076,
      "Ġusing": 4077,
      "Ġtel": 4078,
      "Ġdom": 4079,
      "ilater": 4080,
      "Âº": 4081,
      "Ġcommunic": 4082,
      "Ġcand": 4083,
      "ĠJan": 4084,
      "ĠAb": 4085,
      "Ġchica": 4086,
      "rest": 4087,
      "Ġtrade": 4088,
      "Ġspeak": 4089,
      "Ġmad": 4090,
      "ÃŃculos": 4091,
      "Ġprincipal": 4092,
      "Ġassistance": 4093,
      "Ġdiferentes": 4094,
      "Ġincrease": 4095,
      "Ġprogress": 4096,
      "Ġcomunidad": 4097,
      "udo": 4098,
      "Ġdisposiciones": 4099,
      "isa": 4100,
      "Ã³d": 4101,
      "Ġclase": 4102,
      "EL": 4103,
      "iful": 4104,
      "Ġcheck": 4105,
      "ĠvÃŃct": 4106,
      "Ġworks": 4107,
      "Ġatra": 4108,
      "efe": 4109,
      "iqu": 4110,
      "Ġtend": 4111,
      "erte": 4112,
      "Ġaccid": 4113,
      "ising": 4114,
      "Ġitem": 4115,
      "Ġsitio": 4116,
      "Ġtrabajar": 4117,
      "gel": 4118,
      "Ġescrib": 4119,
      "bles": 4120,
      "Ã¡ndo": 4121,
      "Ġoffice": 4122,
      "Ġofficial": 4123,
      "uge": 4124,
      "lling": 4125,
      "Ġtax": 4126,
      "ĠDevelop": 4127,
      "Ġjunio": 4128,
      "Ġnuestras": 4129,
      "izÃ¡": 4130,
      "ĠDepart": 4131,
      "Ġabsol": 4132,
      "Ġthird": 4133,
      "Ġelabor": 4134,
      "ĠestÃ©": 4135,
      "Ġinvit": 4136,
      "Ã³s": 4137,
      "Ġparties": 4138,
      "Ġpress": 4139,
      "Ġprincipio": 4140,
      "Ġcomes": 4141,
      "Fue": 4142,
      "uir": 4143,
      "itch": 4144,
      "Ġminutes": 4145,
      "Ġmiembro": 4146,
      "Ġincor": 4147,
      "Ġafect": 4148,
      "Res": 4149,
      "iedad": 4150,
      "atr": 4151,
      "Ġobjetivos": 4152,
      "Ġapproach": 4153,
      "Ġobst": 4154,
      "Ġrob": 4155,
      "Ġcollect": 4156,
      "Ġagricult": 4157,
      "ĠLib": 4158,
      "Ġaccept": 4159,
      "SeÃ±or": 4160,
      "ĠgustarÃŃa": 4161,
      "ÃŃd": 4162,
      "Ġbur": 4163,
      "Ġaque": 4164,
      "Ġwel": 4165,
      "ecta": 4166,
      "Ġcabo": 4167,
      "cos": 4168,
      "Ġcut": 4169,
      "Ġabove": 4170,
      "Ġestablished": 4171,
      "Ġpopulation": 4172,
      "ĠRuss": 4173,
      "usiÃ³n": 4174,
      "Ġprevent": 4175,
      "Be": 4176,
      "ature": 4177,
      "Ġfoc": 4178,
      "eda": 4179,
      "Ġvirt": 4180,
      "Go": 4181,
      "cing": 4182,
      "ĠeducaciÃ³n": 4183,
      "ung": 4184,
      "Ġrisk": 4185,
      "Tiene": 4186,
      "Ġproyectos": 4187,
      "Ġhands": 4188,
      "Ġpretty": 4189,
      "Ġinclude": 4190,
      "Ġresid": 4191,
      "ney": 4192,
      "Ġhappy": 4193,
      "Ġmantener": 4194,
      "Ġps": 4195,
      "ĠTur": 4196,
      "Please": 4197,
      "ulta": 4198,
      "Ġimpa": 4199,
      "Ġsomet": 4200,
      "Ġgone": 4201,
      "Ġenergy": 4202,
      "Ġconn": 4203,
      "illas": 4204,
      "Ġregul": 4205,
      "ĠpÃºblico": 4206,
      "Ġbed": 4207,
      "Ġedad": 4208,
      "ĠFeder": 4209,
      "Ġposition": 4210,
      "Ġsubst": 4211,
      "ouble": 4212,
      "Ġfra": 4213,
      "Ġregular": 4214,
      "yr": 4215,
      "Ġrespuesta": 4216,
      "Ġthinking": 4217,
      "ĠMal": 4218,
      "pace": 4219,
      "Ġsubmit": 4220,
      "Ġpregunta": 4221,
      "Ġdescrib": 4222,
      "Ġmedida": 4223,
      "Ġcentro": 4224,
      "Ġestre": 4225,
      "Ġresearch": 4226,
      "Ġtip": 4227,
      "Ġage": 4228,
      "urante": 4229,
      "Ġestad": 4230,
      "âĢĵ": 4231,
      "Ġhermano": 4232,
      "band": 4233,
      "tamente": 4234,
      "ery": 4235,
      "ĠproducciÃ³n": 4236,
      "Ġsubs": 4237,
      "Ġcateg": 4238,
      "ĠregiÃ³n": 4239,
      "ĠCourt": 4240,
      "van": 4241,
      "Ġeither": 4242,
      "Ġsociety": 4243,
      "ENT": 4244,
      "ieran": 4245,
      "Ġexperience": 4246,
      "Ġlate": 4247,
      "quil": 4248,
      "Ġpad": 4249,
      "Ġfish": 4250,
      "Ã©nd": 4251,
      "uvo": 4252,
      "Ġaffect": 4253,
      "Ġpersons": 4254,
      "Ġlarge": 4255,
      "Ġunas": 4256,
      "Ġdado": 4257,
      "ĠIra": 4258,
      "Ġsiquiera": 4259,
      "ĠYo": 4260,
      "Ġanexo": 4261,
      "ierda": 4262,
      "ffici": 4263,
      "Ġconvert": 4264,
      "Ġalong": 4265,
      "Ġ2010": 4266,
      "Ġaver": 4267,
      "Ġlik": 4268,
      "llas": 4269,
      "ueba": 4270,
      "Ġgroups": 4271,
      "omic": 4272,
      "Ġfucking": 4273,
      "irst": 4274,
      "ĠFin": 4275,
      "Ġprogrammes": 4276,
      "Ġnuevos": 4277,
      "truction": 4278,
      "ru": 4279,
      "ĠenergÃŃa": 4280,
      "Ġmeth": 4281,
      "Ġhalf": 4282,
      "Ġzona": 4283,
      "ĠComunidad": 4284,
      "dom": 4285,
      "ony": 4286,
      "aremos": 4287,
      "ĠCons": 4288,
      "Ġgotta": 4289,
      "Ġhablando": 4290,
      "ĠTribunal": 4291,
      "atory": 4292,
      "ulio": 4293,
      "Ġnecesita": 4294,
      "Pre": 4295,
      "Ġbrought": 4296,
      "ĠServ": 4297,
      "Son": 4298,
      "izado": 4299,
      "acto": 4300,
      "des": 4301,
      "unch": 4302,
      "Ġconcent": 4303,
      "osotros": 4304,
      "ughter": 4305,
      "Ġiniti": 4306,
      "Ġpalabra": 4307,
      "Ġsil": 4308,
      "ancias": 4309,
      "ciÃ³": 4310,
      "ienen": 4311,
      "Ġprimero": 4312,
      "Ġpuerta": 4313,
      "Ġespecialmente": 4314,
      "arlos": 4315,
      "Ġbrother": 4316,
      "Ġconsidered": 4317,
      "uf": 4318,
      "ĠGerman": 4319,
      "Ġcurrent": 4320,
      "tion": 4321,
      "ĠShe": 4322,
      "Ġsiguientes": 4323,
      "After": 4324,
      "Any": 4325,
      "icar": 4326,
      "ĠacciÃ³n": 4327,
      "ĠAt": 4328,
      "ificado": 4329,
      "anger": 4330,
      "Ġnuevas": 4331,
      "nal": 4332,
      "Ġaid": 4333,
      "Ġsuf": 4334,
      "Ġpreci": 4335,
      "ĠlÃŃnea": 4336,
      "ĠparticipaciÃ³n": 4337,
      "enn": 4338,
      "Ġfecha": 4339,
      "oluciÃ³n": 4340,
      "Ġpropuesta": 4341,
      "Ġestruct": 4342,
      "joy": 4343,
      "acer": 4344,
      "atado": 4345,
      "Ġguess": 4346,
      "Ġpuesto": 4347,
      "Ġseveral": 4348,
      "bas": 4349,
      "pero": 4350,
      "Ġplazo": 4351,
      "Ġsang": 4352,
      "Ġlic": 4353,
      "Ġeleg": 4354,
      "Ġconten": 4355,
      "ians": 4356,
      "ierto": 4357,
      "Ġpartir": 4358,
      "Ġwords": 4359,
      "tica": 4360,
      "aves": 4361,
      "Ġformul": 4362,
      "Ã¡mb": 4363,
      "Ġdiscuss": 4364,
      "SÃ©": 4365,
      "Ġgame": 4366,
      "ĠPer": 4367,
      "RE": 4368,
      "ĠDan": 4369,
      "Quieres": 4370,
      "iano": 4371,
      "Ġconseguir": 4372,
      "Ġswe": 4373,
      "ĠpÃ¡g": 4374,
      "aring": 4375,
      "ĠDem": 4376,
      "Ġeveryone": 4377,
      "Ġprivate": 4378,
      "Ġreconoci": 4379,
      "Ġremo": 4380,
      "Ġcriter": 4381,
      "Ġpan": 4382,
      "ivamente": 4383,
      "ĠLat": 4384,
      "Ġconsid": 4385,
      "Ġsuficiente": 4386,
      "17": 4387,
      "Ġconduct": 4388,
      "Ġentire": 4389,
      "Ġadel": 4390,
      "Ġjuego": 4391,
      "Ġbusc": 4392,
      "amin": 4393,
      "Ġthank": 4394,
      "Ġstarted": 4395,
      "Ġinstitutions": 4396,
      "aster": 4397,
      "ĠAmerica": 4398,
      "Ġemploy": 4399,
      "orr": 4400,
      "ĠPh": 4401,
      "acciÃ³n": 4402,
      "Ġmanos": 4403,
      "iembre": 4404,
      "ĠJuly": 4405,
      "ĠNational": 4406,
      "Ġplane": 4407,
      "Ġdrug": 4408,
      "Ġfundamental": 4409,
      "fort": 4410,
      "point": 4411,
      "ongo": 4412,
      "Ġcle": 4413,
      "Ġrelevant": 4414,
      "uls": 4415,
      "Ġwonder": 4416,
      "ING": 4417,
      "ĠConference": 4418,
      "Ġbeautiful": 4419,
      "ai": 4420,
      "Ġwanna": 4421,
      "Algun": 4422,
      "Ġconvers": 4423,
      "Ġjulio": 4424,
      "ĠYes": 4425,
      "Ġcouldn": 4426,
      "Ġinvers": 4427,
      "Ġagenda": 4428,
      "Ġproduction": 4429,
      "Ġesfuerzos": 4430,
      "25": 4431,
      "ĠPero": 4432,
      "Ġsupuesto": 4433,
      "val": 4434,
      "ĠTreat": 4435,
      "iados": 4436,
      "Ġquality": 4437,
      "endido": 4438,
      "Ġimprove": 4439,
      "bit": 4440,
      "mber": 4441,
      "tember": 4442,
      "Ġacept": 4443,
      "Ġfire": 4444,
      "nov": 4445,
      "Ġdeveloping": 4446,
      "ĠEUR": 4447,
      "Ġappropriate": 4448,
      "ĠMy": 4449,
      "Ġfuck": 4450,
      "IV": 4451,
      "Ġefectos": 4452,
      "Ġalto": 4453,
      "Ġcert": 4454,
      "Ġprovisions": 4455,
      "ĠDevelopment": 4456,
      "ieras": 4457,
      "zado": 4458,
      "Ġexamin": 4459,
      "Ġperfect": 4460,
      "Ã©rica": 4461,
      "Ġsept": 4462,
      "tera": 4463,
      "Ġdoor": 4464,
      "Ġclim": 4465,
      "Ġpobre": 4466,
      "ĠÃºnica": 4467,
      "Ġbot": 4468,
      "Ã©l": 4469,
      "Ġtempor": 4470,
      "ĠPre": 4471,
      "ienda": 4472,
      "Ġpros": 4473,
      "Ġvolunt": 4474,
      "ĠDerechos": 4475,
      "Ġtonight": 4476,
      "Ġthough": 4477,
      "Ġstory": 4478,
      "Ġwalk": 4479,
      "Ġtext": 4480,
      "Ġalmost": 4481,
      "Here": 4482,
      "ĠSte": 4483,
      "Ġregistr": 4484,
      "Ġmuerto": 4485,
      "ols": 4486,
      "Ġgrande": 4487,
      "jar": 4488,
      "Ãĵ": 4489,
      "Ġoften": 4490,
      "cciones": 4491,
      "ĠGre": 4492,
      "Ġespera": 4493,
      "ĠmÃŃo": 4494,
      "Ġasoci": 4495,
      "Ġimportantes": 4496,
      "Ġresults": 4497,
      "Ġdetail": 4498,
      "Ġgast": 4499,
      "ocra": 4500,
      "Ġpie": 4501,
      "Ġbastante": 4502,
      "Ġjuntos": 4503,
      "Ġorient": 4504,
      "esta": 4505,
      "Ġluz": 4506,
      "urch": 4507,
      "izÃ¡s": 4508,
      "Ġmilitar": 4509,
      "Ġmonitor": 4510,
      "Ġment": 4511,
      "Ġfail": 4512,
      "onio": 4513,
      "Ġactu": 4514,
      "eme": 4515,
      "Ġimpos": 4516,
      "Ġtomorrow": 4517,
      "Ġlives": 4518,
      "idd": 4519,
      "?\"": 4520,
      "Ġtw": 4521,
      "ĠSra": 4522,
      "ĠSep": 4523,
      "ĠKing": 4524,
      "Ġvarious": 4525,
      "Ġnota": 4526,
      "ende": 4527,
      "Ġcou": 4528,
      "Ġmundial": 4529,
      "ÃŃm": 4530,
      "erson": 4531,
      "though": 4532,
      "Ġasesin": 4533,
      "Ġfocus": 4534,
      "Ġfirm": 4535,
      "Ġtratamiento": 4536,
      "Ġestrateg": 4537,
      "Ġlangu": 4538,
      "lor": 4539,
      "ĠIr": 4540,
      "Ġresta": 4541,
      "Ġdese": 4542,
      "ĠUE": 4543,
      "ctober": 4544,
      "esa": 4545,
      "ĠAustr": 4546,
      "Ġcreer": 4547,
      "Ġfacilit": 4548,
      "Ġkey": 4549,
      "Ġagreement": 4550,
      "Ġlibertad": 4551,
      "Gracias": 4552,
      "His": 4553,
      "Ġsangre": 4554,
      "Ġinstituciones": 4555,
      "ĠSup": 4556,
      "Ese": 4557,
      "Ġtit": 4558,
      "ania": 4559,
      "Ġphone": 4560,
      "Ġsleep": 4561,
      "ĠSam": 4562,
      "ianza": 4563,
      "Ġanswer": 4564,
      "Ġdad": 4565,
      "Ġshort": 4566,
      "Ġframe": 4567,
      "Ġhowever": 4568,
      "ua": 4569,
      "iana": 4570,
      "uestos": 4571,
      "ĠmamÃ¡": 4572,
      "pril": 4573,
      "ĠAmerican": 4574,
      "ctubre": 4575,
      "ught": 4576,
      "ĠâĢĺ": 4577,
      "ished": 4578,
      "Ġsexual": 4579,
      "gent": 4580,
      "ological": 4581,
      "Ġaband": 4582,
      "ensiÃ³n": 4583,
      "Cons": 4584,
      "Our": 4585,
      "Ġquite": 4586,
      "Ġvin": 4587,
      "cks": 4588,
      "ĠSa": 4589,
      "Ġprohib": 4590,
      "Ġpromot": 4591,
      "Ġempresa": 4592,
      "edom": 4593,
      "....": 4594,
      "Ġcarr": 4595,
      "Ġstaff": 4596,
      "Ã©f": 4597,
      "Ġaltern": 4598,
      "See": 4599,
      "Desde": 4600,
      "ĠpasÃ³": 4601,
      "Ġtruth": 4602,
      "istraciÃ³n": 4603,
      "Ġpensar": 4604,
      "Ġexperiencia": 4605,
      "Ġtreatment": 4606,
      "ecuciÃ³n": 4607,
      "Ġexplo": 4608,
      "alia": 4609,
      "itution": 4610,
      "alla": 4611,
      "ĠpequeÃ±o": 4612,
      "Ġtele": 4613,
      "Ġreports": 4614,
      "Ġthreat": 4615,
      "Ġmec": 4616,
      "ĠademÃ¡s": 4617,
      "Ġparticularly": 4618,
      "Ġcultural": 4619,
      "Uh": 4620,
      "ĠCal": 4621,
      "ĠÃ¡mb": 4622,
      "vember": 4623,
      "Ġtuv": 4624,
      "Puede": 4625,
      "AquÃŃ": 4626,
      "gn": 4627,
      "Ġoutside": 4628,
      "Ġassess": 4629,
      "asing": 4630,
      "Ġbuy": 4631,
      "Ġseis": 4632,
      "ĠAct": 4633,
      "60": 4634,
      "Ġrestr": 4635,
      "Ġstruct": 4636,
      "Ġship": 4637,
      "atever": 4638,
      "Ġapplication": 4639,
      "Ġcuid": 4640,
      "pped": 4641,
      "Ġsafe": 4642,
      "Ġtor": 4643,
      "ideo": 4644,
      "Puedo": 4645,
      "ince": 4646,
      "omen": 4647,
      "icen": 4648,
      "otos": 4649,
      "Ġrespond": 4650,
      "cepto": 4651,
      "arr": 4652,
      "Ġchall": 4653,
      "ĠOF": 4654,
      "Ġclaro": 4655,
      "Ġfront": 4656,
      "Ġnecesidades": 4657,
      "Ġhija": 4658,
      "ĠpapÃ¡": 4659,
      "TH": 4660,
      "Ġcustom": 4661,
      "duction": 4662,
      "Ġaccording": 4663,
      "ires": 4664,
      "Ġfij": 4665,
      "Ġdepart": 4666,
      "lf": 4667,
      "anco": 4668,
      "Ġterms": 4669,
      "Ġlab": 4670,
      "raph": 4671,
      "Am": 4672,
      "ĠWell": 4673,
      "ĠCOM": 4674,
      "ĠorganizaciÃ³n": 4675,
      "uestra": 4676,
      "Ġneeded": 4677,
      "Ġlat": 4678,
      "ĠSer": 4679,
      "Ġmejorar": 4680,
      "Ġexamen": 4681,
      "olution": 4682,
      "Ġagrad": 4683,
      "Of": 4684,
      "Ġprogres": 4685,
      "Ġsugg": 4686,
      "Ġsuggest": 4687,
      "Ã³l": 4688,
      "Ġpalabras": 4689,
      "ĠLord": 4690,
      "pet": 4691,
      "Ġbuilding": 4692,
      "Ġweap": 4693,
      "Ġestaban": 4694,
      "Ġespecially": 4695,
      "Ġtowards": 4696,
      "DespuÃ©s": 4697,
      "Ġriesgo": 4698,
      "ĠIraq": 4699,
      "Ġdemocr": 4700,
      "Ġpronto": 4701,
      "Ġrather": 4702,
      "ĠFe": 4703,
      "Ġcontract": 4704,
      "Ġcitiz": 4705,
      "yl": 4706,
      "ĠpodrÃ¡": 4707,
      "Ġmethod": 4708,
      "Ġinformes": 4709,
      "Ġsociales": 4710,
      "Ġetc": 4711,
      "Ġiba": 4712,
      "Ġknows": 4713,
      "Ġdecided": 4714,
      "Ġmostr": 4715,
      "Ġojos": 4716,
      "Ġcuar": 4717,
      "Ġpropia": 4718,
      "Ġeasy": 4719,
      "ecen": 4720,
      "ume": 4721,
      "Ġrequired": 4722,
      "Ġseptiembre": 4723,
      "lled": 4724,
      "iff": 4725,
      "Ġdesc": 4726,
      "Ġinstal": 4727,
      "Som": 4728,
      "ource": 4729,
      "Ġescal": 4730,
      "ĠPalest": 4731,
      "bamos": 4732,
      "amientos": 4733,
      "ĠCap": 4734,
      "ĠEd": 4735,
      "Ġfamiliar": 4736,
      "Ġenfermed": 4737,
      "Ġcomput": 4738,
      "Ġguar": 4739,
      "Ġefica": 4740,
      "Ġprobably": 4741,
      "Ġdigo": 4742,
      "ĠMarch": 4743,
      "Tal": 4744,
      "Ġweb": 4745,
      "tained": 4746,
      "Ġstuff": 4747,
      "Ġbehind": 4748,
      "Ġadap": 4749,
      "ross": 4750,
      "over": 4751,
      "ĠSeptember": 4752,
      "uper": 4753,
      "Ġsean": 4754,
      "tura": 4755,
      "Ġsufr": 4756,
      "Ġmit": 4757,
      "Ġcompon": 4758,
      "Ġground": 4759,
      "Ġincorpor": 4760,
      "Ġhaces": 4761,
      "ĠCentral": 4762,
      "ĠAfrica": 4763,
      "ĠhabÃŃan": 4764,
      "zÃ³": 4765,
      "ises": 4766,
      "Ġquestions": 4767,
      "Ġsuperior": 4768,
      "Ġescuela": 4769,
      "ping": 4770,
      "ories": 4771,
      "Ġchance": 4772,
      "viembre": 4773,
      "ĠInternet": 4774,
      "Ġimpact": 4775,
      "ĠProtocol": 4776,
      "Ġvivir": 4777,
      "ĠPR": 4778,
      "Ġcompart": 4779,
      "Ġattention": 4780,
      "ev": 4781,
      "Ġenjoy": 4782,
      "ĠOctober": 4783,
      "ĠinterÃ©s": 4784,
      "Ġ1998": 4785,
      "Ġeyes": 4786,
      "ĠÃ©x": 4787,
      "Ġdrink": 4788,
      "ĠespecÃŃf": 4789,
      "ware": 4790,
      "Ġexport": 4791,
      "Ġesposa": 4792,
      "Ġsingle": 4793,
      "Ġfuerte": 4794,
      "tico": 4795,
      "Ġresultado": 4796,
      "Ġjug": 4797,
      "Ġvenir": 4798,
      "rado": 4799,
      "Ġdol": 4800,
      "Ġrelated": 4801,
      "Ġtechnical": 4802,
      "Ġcandid": 4803,
      "Ġviolencia": 4804,
      "ĠÃºltimos": 4805,
      "ledge": 4806,
      "Ġvarios": 4807,
      "ondos": 4808,
      "Ġtransform": 4809,
      "Ġba": 4810,
      "Ġhubiera": 4811,
      "ka": 4812,
      "oul": 4813,
      "Ġconc": 4814,
      "ĠSw": 4815,
      "Ġempleo": 4816,
      "24": 4817,
      "gado": 4818,
      "ws": 4819,
      "ĠThey": 4820,
      "Ġdio": 4821,
      "Ġsend": 4822,
      "Ġpartners": 4823,
      "ĠdirecciÃ³n": 4824,
      "Ġpi": 4825,
      "ĠprÃ¡ctica": 4826,
      "usband": 4827,
      "Ġcrees": 4828,
      "Ġearly": 4829,
      "Ġanterior": 4830,
      "Ap": 4831,
      "Ġposibilidad": 4832,
      "Ġmayo": 4833,
      "Ġtype": 4834,
      "Ġlucha": 4835,
      "ĠcreaciÃ³n": 4836,
      "Ġreceived": 4837,
      "Ġenfr": 4838,
      "Ġoctubre": 4839,
      "Ġ2011": 4840,
      "arle": 4841,
      "ĠWill": 4842,
      "ift": 4843,
      "Ġcoche": 4844,
      "Ġautom": 4845,
      "Ġocurr": 4846,
      "Ġpun": 4847,
      "arnos": 4848,
      "iot": 4849,
      "now": 4850,
      "ron": 4851,
      "Ġassoci": 4852,
      "Ġexclus": 4853,
      "Ġchico": 4854,
      "Ġobjeto": 4855,
      "Ġ&": 4856,
      "Ġhumanitar": 4857,
      "Ġdocumento": 4858,
      "orge": 4859,
      "Ġmierda": 4860,
      "itÃ¡n": 4861,
      "Ġinmedi": 4862,
      "Ġmiedo": 4863,
      "Ġbir": 4864,
      "Ġhacen": 4865,
      "echan": 4866,
      "ull": 4867,
      "Ġple": 4868,
      "reet": 4869,
      "Ġenem": 4870,
      "Ġselect": 4871,
      "Ġcapacity": 4872,
      "ened": 4873,
      "Ġ60": 4874,
      "Ġsue": 4875,
      "Ġlonger": 4876,
      "Ġraz": 4877,
      "ĠtelÃ©f": 4878,
      "Ġfore": 4879,
      "ĠDis": 4880,
      "Ġsomos": 4881,
      "Ġsystems": 4882,
      "Ġod": 4883,
      "Ġmurder": 4884,
      "CT": 4885,
      "Ġeat": 4886,
      "Ġreferred": 4887,
      "ĠBel": 4888,
      "Ġdistint": 4889,
      "itario": 4890,
      "ĠMundial": 4891,
      "Ġmilitary": 4892,
      "Ġdesem": 4893,
      "ĠTratado": 4894,
      "Ġpadres": 4895,
      "Ġdeten": 4896,
      "ĠApril": 4897,
      "ĠNovember": 4898,
      "Ġfuerza": 4899,
      "Ġkids": 4900,
      "Act": 4901,
      "ĠbÃ¡s": 4902,
      "ald": 4903,
      "Ġnecesito": 4904,
      "arrollo": 4905,
      "Ġinside": 4906,
      "ĠTreaty": 4907,
      "ÃĵN": 4908,
      "Have": 4909,
      "teriores": 4910,
      "venes": 4911,
      "ĠopiniÃ³n": 4912,
      "Reg": 4913,
      "Ġgun": 4914,
      "Ġdebido": 4915,
      "atorio": 4916,
      "Ġdeliver": 4917,
      "ĠpodÃŃa": 4918,
      "Ġmention": 4919,
      "Ġorigin": 4920,
      "Ġpopular": 4921,
      "han": 4922,
      "oto": 4923,
      "Ġtable": 4924,
      "Ġmodel": 4925,
      "Ġoficial": 4926,
      "Ġprecios": 4927,
      "Ġconserv": 4928,
      "ĠConferencia": 4929,
      "Ġrepl": 4930,
      "ĠFund": 4931,
      "Ġcara": 4932,
      "ĠmÃ©dico": 4933,
      "Aunque": 4934,
      "Ġchicos": 4935,
      "Ġlink": 4936,
      "Ġconci": 4937,
      "ĠWh": 4938,
      "ĠJack": 4939,
      "Ġ2012": 4940,
      "tado": 4941,
      "Ġnoviembre": 4942,
      "Ġche": 4943,
      "Ġlow": 4944,
      "Ġmarzo": 4945,
      "Ġprincipales": 4946,
      "Ġinvolved": 4947,
      "Ġill": 4948,
      "ĠNueva": 4949,
      "Ġ/": 4950,
      "Ġsosten": 4951,
      "Ġhusband": 4952,
      "iesta": 4953,
      "Ġalred": 4954,
      "Esa": 4955,
      "mientos": 4956,
      "Esper": 4957,
      "ĠallÃ¡": 4958,
      "ĠIndia": 4959,
      "âĢ¦": 4960,
      "Ġproposal": 4961,
      "\"?": 4962,
      "ĠtÃ©r": 4963,
      "Ġefecto": 4964,
      "23": 4965,
      "hol": 4966,
      "Ġdefinit": 4967,
      "Ġachieve": 4968,
      "Ġveo": 4969,
      "Ġpaso": 4970,
      "Ġcampo": 4971,
      "Ġviolence": 4972,
      "Ġentrar": 4973,
      "Ġdecisiones": 4974,
      "Ġcard": 4975,
      "Ġnov": 4976,
      "iencia": 4977,
      "Ġprojects": 4978,
      "Era": 4979,
      "Ġexig": 4980,
      "Ġexplic": 4981,
      "ĠTom": 4982,
      "Ġencuentra": 4983,
      "erve": 4984,
      "ĠPl": 4985,
      "ibil": 4986,
      "Ġdesp": 4987,
      "Ġaddition": 4988,
      "Ġ!": 4989,
      "tage": 4990,
      "key": 4991,
      "Ġprincipios": 4992,
      "Ġqueda": 4993,
      "Ġlevels": 4994,
      "ĠAp": 4995,
      "Ġconstru": 4996,
      "brero": 4997,
      "Ġpolici": 4998,
      "Ġpropio": 4999,
      "Ġmember": 5000,
      "Ġenero": 5001,
      "ĠEC": 5002,
      "Ġfarm": 5003,
      "Ġpoor": 5004,
      "2005": 5005,
      "Ġhonor": 5006,
      "IÃĵN": 5007,
      "Mar": 5008,
      "Ent": 5009,
      "Ġvalue": 5010,
      "Ġsistemas": 5011,
      "Â°": 5012,
      "Ġhit": 5013,
      "Ġhaga": 5014,
      "ĠJanuary": 5015,
      "mand": 5016,
      "remos": 5017,
      "Ġ--": 5018,
      "Ġapply": 5019,
      "Estamos": 5020,
      "leman": 5021,
      "Ġgoes": 5022,
      "Ġserio": 5023,
      "Ġsupposed": 5024,
      "Ġtranspar": 5025,
      "icha": 5026,
      "Ġcrear": 5027,
      "Ġcriminal": 5028,
      "ielo": 5029,
      "Ġaim": 5030,
      "Ã³venes": 5031,
      "ĠcomunicaciÃ³n": 5032,
      "Ġzonas": 5033,
      "Ġpick": 5034,
      "Ġshit": 5035,
      "Ġdied": 5036,
      "Ġshare": 5037,
      "Ã¡lisis": 5038,
      "Ġtexto": 5039,
      "ĠInform": 5040,
      "Ġprofess": 5041,
      "hes": 5042,
      "culo": 5043,
      "atal": 5044,
      "ĠSouth": 5045,
      "ĠAh": 5046,
      "icidad": 5047,
      "cidos": 5048,
      "Ġworry": 5049,
      "Ġmic": 5050,
      "Ġdesap": 5051,
      "Ġsignificant": 5052,
      "isten": 5053,
      "Ġestudio": 5054,
      "Ġfis": 5055,
      "ĠDav": 5056,
      "Ġprefer": 5057,
      "Ġitself": 5058,
      "Ġgirls": 5059,
      "Ġelev": 5060,
      "ille": 5061,
      "Ġhimself": 5062,
      "cisiÃ³n": 5063,
      "ĠsesiÃ³n": 5064,
      "ding": 5065,
      "Ġshot": 5066,
      "rench": 5067,
      "iro": 5068,
      "Ġambiente": 5069,
      "Ġgarantizar": 5070,
      "Ġrap": 5071,
      "amentos": 5072,
      "ĠpelÃŃcul": 5073,
      "Ni": 5074,
      "Ġgovern": 5075,
      "nel": 5076,
      "wor": 5077,
      "ĠIm": 5078,
      "ĠEE": 5079,
      "Ġpoc": 5080,
      "Ġstudy": 5081,
      "ully": 5082,
      "Ġpict": 5083,
      "aran": 5084,
      "umb": 5085,
      "Ġjunto": 5086,
      "Ġvolv": 5087,
      "Ġvote": 5088,
      "ioso": 5089,
      "Ġcolor": 5090,
      "Ġnature": 5091,
      "Ġradio": 5092,
      "ĠrÃ¡pido": 5093,
      "ĠAfr": 5094,
      "Ġdemocra": 5095,
      "Ġtrust": 5096,
      "Ġcolabor": 5097,
      "ĠfunciÃ³n": 5098,
      "IL": 5099,
      "Ġcoll": 5100,
      "ffair": 5101,
      "ively": 5102,
      "ficina": 5103,
      "Ġsoft": 5104,
      "ĠDirective": 5105,
      "cus": 5106,
      "apa": 5107,
      "Ġintel": 5108,
      "Pens": 5109,
      "Ġserie": 5110,
      "Ġimportance": 5111,
      "ĠMrs": 5112,
      "Ġinnov": 5113,
      "elas": 5114,
      "ĠTen": 5115,
      "ĠJe": 5116,
      "ĠÃ³rgan": 5117,
      "ĠÃ©xito": 5118,
      "Ġbaj": 5119,
      "Ġestuv": 5120,
      "Siempre": 5121,
      "ĠNacional": 5122,
      "Ġencoura": 5123,
      "cord": 5124,
      "Ġaqu": 5125,
      "Ġtransporte": 5126,
      "dito": 5127,
      "Ġpid": 5128,
      "Ġplen": 5129,
      "Ġfoto": 5130,
      "Ġaumento": 5131,
      "Ġolvid": 5132,
      "ĠRec": 5133,
      "Ġprison": 5134,
      "ĠBro": 5135,
      "Ġthemselves": 5136,
      "Ġhistory": 5137,
      "DO": 5138,
      "Good": 5139,
      "Ġbill": 5140,
      "Ġingres": 5141,
      "Ġtenga": 5142,
      "Ġbuscar": 5143,
      "bernament": 5144,
      "iddle": 5145,
      "22": 5146,
      "ĠjÃ³venes": 5147,
      "ared": 5148,
      "ĠformaciÃ³n": 5149,
      ",\"": 5150,
      "ÃŃtulo": 5151,
      "Ġviene": 5152,
      "Ġtelev": 5153,
      "Ġconcerning": 5154,
      "Ġself": 5155,
      "Ġdebemos": 5156,
      "Ġroad": 5157,
      "Ġcambiar": 5158,
      "ĠOffice": 5159,
      "au": 5160,
      "ites": 5161,
      "Ġproducto": 5162,
      "pas": 5163,
      "Ġess": 5164,
      "lesia": 5165,
      "Ġdaughter": 5166,
      "Ġexactly": 5167,
      "Ġdedic": 5168,
      "ĠMil": 5169,
      "Ġtuvo": 5170,
      "Ġabril": 5171,
      "ST": 5172,
      "Ġformas": 5173,
      "Ġevidence": 5174,
      "ĠDirectiva": 5175,
      "Ġclean": 5176,
      "Ġcru": 5177,
      "Ġdeveloped": 5178,
      "ĠDeclar": 5179,
      "Ġexcept": 5180,
      "Ġtercer": 5181,
      "Ġevitar": 5182,
      "Ġtort": 5183,
      "Ġbon": 5184,
      "Ġband": 5185,
      "Ġjusto": 5186,
      "ournal": 5187,
      "Ġdorm": 5188,
      "Ġvideo": 5189,
      "raid": 5190,
      "Ġresponsabilidad": 5191,
      "enas": 5192,
      "ension": 5193,
      "view": 5194,
      "Ġclo": 5195,
      "Ġamount": 5196,
      "Ã¡nto": 5197,
      "ĠsabÃŃa": 5198,
      "Ġguarante": 5199,
      "Ġpurs": 5200,
      "ĠmÃºs": 5201,
      "Ġexiste": 5202,
      "Ġconsist": 5203,
      "Ġprocedure": 5204,
      "ĠevaluaciÃ³n": 5205,
      "Ġasunto": 5206,
      "Ġhistor": 5207,
      "Ġlimp": 5208,
      "Ġrequirements": 5209,
      "Ġabandon": 5210,
      "Ã¡lo": 5211,
      "Ġprevious": 5212,
      "Ġseems": 5213,
      "pan": 5214,
      "Ġcharacter": 5215,
      "Ġtour": 5216,
      "Ġyeah": 5217,
      "Ġnegoti": 5218,
      "Ġgent": 5219,
      "ĠPo": 5220,
      "Ġresist": 5221,
      "ĠposiciÃ³n": 5222,
      "Ġprocedimiento": 5223,
      "Ġpreguntas": 5224,
      "Ġperspect": 5225,
      "Ġhy": 5226,
      "room": 5227,
      "ĠPlan": 5228,
      "uerto": 5229,
      "Ġmecan": 5230,
      "ET": 5231,
      "Ġprice": 5232,
      "Ġcompan": 5233,
      "Ġcarry": 5234,
      "Ġtou": 5235,
      "Ġnote": 5236,
      "Ġ196": 5237,
      "Ġphys": 5238,
      "ilateral": 5239,
      "ĠEr": 5240,
      "ffic": 5241,
      "Ġellas": 5242,
      "uebas": 5243,
      "Ġfabr": 5244,
      "Ġsolicitud": 5245,
      "ĠWho": 5246,
      "Ġbomb": 5247,
      "ĠMor": 5248,
      "Ġrecuper": 5249,
      "atura": 5250,
      "oud": 5251,
      "Ġcargo": 5252,
      "ption": 5253,
      "Ġsuerte": 5254,
      "Ġarreglo": 5255,
      "ĠSpecial": 5256,
      "Ġprueba": 5257,
      "Ser": 5258,
      "ĠDesarrollo": 5259,
      "ĠtÃ©rmin": 5260,
      "Im": 5261,
      "iting": 5262,
      "Ġspirit": 5263,
      "gue": 5264,
      "Ġmechan": 5265,
      "uraciÃ³n": 5266,
      "arla": 5267,
      "Ġhice": 5268,
      "Ġforward": 5269,
      "haps": 5270,
      "ky": 5271,
      "Ġlog": 5272,
      "acy": 5273,
      "Ġtakes": 5274,
      "uestro": 5275,
      "Deber": 5276,
      "Oye": 5277,
      "vest": 5278,
      "Ġcast": 5279,
      "Ġfreedom": 5280,
      "Ġsuffer": 5281,
      "ĠIN": 5282,
      "Ġpare": 5283,
      "Ġtarget": 5284,
      "Ġespacio": 5285,
      "Ġsense": 5286,
      "istan": 5287,
      "Ġdream": 5288,
      "ĠmÃ¡x": 5289,
      "cta": 5290,
      "icional": 5291,
      "culos": 5292,
      "Ġlooks": 5293,
      "ciales": 5294,
      "ieved": 5295,
      "2003": 5296,
      "Ġjue": 5297,
      "Ġjoven": 5298,
      "Ġconocer": 5299,
      "Dis": 5300,
      "Ġprove": 5301,
      "Ġdij": 5302,
      "Ġdog": 5303,
      "ses": 5304,
      "Ġfondos": 5305,
      "uno": 5306,
      "Ġcompla": 5307,
      "Ġgrant": 5308,
      "Ġdiciendo": 5309,
      "ĠAD": 5310,
      "ĠFrench": 5311,
      "bajo": 5312,
      "Ġantigu": 5313,
      "Estaba": 5314,
      "Ġmut": 5315,
      "Ġrecl": 5316,
      "Ġcross": 5317,
      "Ġaccom": 5318,
      "Ġreflect": 5319,
      "ĠQ": 5320,
      "Ġhost": 5321,
      "Ġoficina": 5322,
      "idamente": 5323,
      "ĠBl": 5324,
      "Sup": 5325,
      "Seg": 5326,
      "ĠIf": 5327,
      "ifer": 5328,
      "Ġmira": 5329,
      "ampoco": 5330,
      "ĠJesus": 5331,
      "ĠWhy": 5332,
      "iger": 5333,
      "Ġcomida": 5334,
      "Ġcorrect": 5335,
      "Ġpacientes": 5336,
      "ĠAN": 5337,
      "ĠpequeÃ±a": 5338,
      "ĠHer": 5339,
      "Ġsustain": 5340,
      "Ġfully": 5341,
      "ÃŃsticas": 5342,
      "ĠVal": 5343,
      "Ġresponsible": 5344,
      "Ġgolpe": 5345,
      "iÃ±o": 5346,
      "icias": 5347,
      "Ġguid": 5348,
      "Ġminor": 5349,
      "lands": 5350,
      "Ġcause": 5351,
      "Ġasp": 5352,
      "ĠEspecial": 5353,
      "Ġestablecer": 5354,
      "Ġsemanas": 5355,
      "Ġrate": 5356,
      "Ġpublish": 5357,
      "Ġmach": 5358,
      "40": 5359,
      "Muy": 5360,
      "gy": 5361,
      "ĠeconÃ³mica": 5362,
      "Ġcuent": 5363,
      "Ġplant": 5364,
      "Ġproposed": 5365,
      "ĠmÃ©to": 5366,
      "arch": 5367,
      "Ġwaiting": 5368,
      "Ġaz": 5369,
      "Ġdut": 5370,
      "Ġciudadanos": 5371,
      "Ġcomercial": 5372,
      "Ġimmedi": 5373,
      "Ġworkers": 5374,
      "Ġlisten": 5375,
      "ĠdeclaraciÃ³n": 5376,
      "Ġsafety": 5377,
      "viv": 5378,
      "ÃŃos": 5379,
      "Ġgets": 5380,
      "Ġafraid": 5381,
      "ĠPort": 5382,
      "preci": 5383,
      "Ġframework": 5384,
      "ĠAug": 5385,
      "Ġrid": 5386,
      "ĠRus": 5387,
      "Ġpruebas": 5388,
      "Ġrelationship": 5389,
      "Ġpolicies": 5390,
      "lls": 5391,
      "Ġresto": 5392,
      "ĠAnnex": 5393,
      "Ã³digo": 5394,
      "Ġalrededor": 5395,
      "ĠThere": 5396,
      "ĠMc": 5397,
      "portaciÃ³n": 5398,
      "ĠtelÃ©fono": 5399,
      "ĠHumanos": 5400,
      "Ġejerci": 5401,
      "ging": 5402,
      "Ġquick": 5403,
      "Ġvul": 5404,
      "ĠOficina": 5405,
      "posiciÃ³n": 5406,
      "cked": 5407,
      "Ġadmit": 5408,
      "Ġpartici": 5409,
      "Puedes": 5410,
      "Ġu": 5411,
      "ĠÃģfrica": 5412,
      "ĠQue": 5413,
      "Ġcere": 5414,
      "uerdos": 5415,
      "Ġmejores": 5416,
      "Tra": 5417,
      "Ġtried": 5418,
      "ĠLu": 5419,
      "Ġtrip": 5420,
      "cin": 5421,
      "Ġsym": 5422,
      "Ġspace": 5423,
      "Ġpuedan": 5424,
      "ĠEspa": 5425,
      "Ġmine": 5426,
      "Ã¡st": 5427,
      "Ġpresupuesto": 5428,
      "Ġparents": 5429,
      "Ġminute": 5430,
      "AP": 5431,
      "Ġpier": 5432,
      "amed": 5433,
      "estra": 5434,
      "mail": 5435,
      "Ġcausa": 5436,
      "Ġstep": 5437,
      "Ġobstante": 5438,
      "aw": 5439,
      "ki": 5440,
      "Ġcoc": 5441,
      "aro": 5442,
      "Ġcontem": 5443,
      "Ġforget": 5444,
      "Ġextran": 5445,
      "2006": 5446,
      "Ġep": 5447,
      "Ã©j": 5448,
      "Ġdetect": 5449,
      "Ġcombin": 5450,
      "Ġleaders": 5451,
      "Ġscre": 5452,
      "iernos": 5453,
      "ĠsoluciÃ³n": 5454,
      "Ġlograr": 5455,
      "entar": 5456,
      "Ġadult": 5457,
      "2007": 5458,
      "Ã¡ndose": 5459,
      "Ġproces": 5460,
      "Ġresponsibility": 5461,
      "26": 5462,
      "ajes": 5463,
      "ĠseÃ±ora": 5464,
      "Ġideas": 5465,
      "eric": 5466,
      "iciales": 5467,
      "Ġbodies": 5468,
      "cision": 5469,
      "Ġpermite": 5470,
      "Ġpesar": 5471,
      "Ġsegunda": 5472,
      "Ġpractice": 5473,
      "Ġforeign": 5474,
      "iaciÃ³n": 5475,
      "ciente": 5476,
      "ibr": 5477,
      "urso": 5478,
      "cot": 5479,
      "Ġvarias": 5480,
      "ĠMex": 5481,
      "By": 5482,
      "ĠfÃŃs": 5483,
      "Ġfix": 5484,
      "Ġmarried": 5485,
      "ierta": 5486,
      "ĠRel": 5487,
      "ĠJos": 5488,
      "Ġlearn": 5489,
      "Like": 5490,
      "Ġllama": 5491,
      "Ġvuelta": 5492,
      "este": 5493,
      "istic": 5494,
      "Ġ2013": 5495,
      "Ġblack": 5496,
      "ĠDirector": 5497,
      "ills": 5498,
      "Ġllamado": 5499,
      "Ġanimal": 5500,
      "Ġobtener": 5501,
      "29": 5502,
      "Ġoperaciones": 5503,
      "From": 5504,
      "Ġcra": 5505,
      "eful": 5506,
      "cording": 5507,
      "ĠanÃ¡lisis": 5508,
      "ĠLet": 5509,
      "Ġcitizens": 5510,
      "Ġjefe": 5511,
      "anks": 5512,
      "Ġport": 5513,
      "istry": 5514,
      "ĠLond": 5515,
      "Durante": 5516,
      "Ġgrat": 5517,
      "Ġaccoun": 5518,
      "2004": 5519,
      "Ġtipos": 5520,
      "Ġinterior": 5521,
      "ĠAdmin": 5522,
      "Ġdestro": 5523,
      "Ġabog": 5524,
      "ĠLey": 5525,
      "Ġarriba": 5526,
      "Ġlocales": 5527,
      "Ġinm": 5528,
      "ĠLaw": 5529,
      "encies": 5530,
      "Ġnaci": 5531,
      "ĠAsia": 5532,
      "Ġreferencia": 5533,
      "ĠpÃºblica": 5534,
      "ĠRed": 5535,
      "Ġdict": 5536,
      "Ġdisco": 5537,
      "Ġprofund": 5538,
      "Ġincreased": 5539,
      "ĠhabrÃŃa": 5540,
      "Ġprecio": 5541,
      "Ġpresidente": 5542,
      "Ġocas": 5543,
      "Ġadditional": 5544,
      "Ġmass": 5545,
      "Ġweeks": 5546,
      "Ġcuales": 5547,
      "Ġviaje": 5548,
      "Ġgastos": 5549,
      "eless": 5550,
      "Ġknowledge": 5551,
      "Ġtrabajadores": 5552,
      "Ġindustry": 5553,
      "Ġopinion": 5554,
      "idencia": 5555,
      "ĠAf": 5556,
      "Ġmusic": 5557,
      "Ġappl": 5558,
      "Ġimpl": 5559,
      "ĠcarÃ¡ct": 5560,
      "Ġcaracter": 5561,
      "Ġcouple": 5562,
      "ĠcarÃ¡cter": 5563,
      "iest": 5564,
      "Ġconced": 5565,
      "izada": 5566,
      "Ġmodern": 5567,
      "Ġcosts": 5568,
      "45": 5569,
      "ciaciones": 5570,
      "Ġcarried": 5571,
      "Ġcomercio": 5572,
      "Ġdetall": 5573,
      "Ġproteger": 5574,
      "Ġvirtud": 5575,
      "Ġclub": 5576,
      "Ġunderta": 5577,
      "Ġpack": 5578,
      "Ġcondu": 5579,
      "urg": 5580,
      "ĠJer": 5581,
      "Tom": 5582,
      "bu": 5583,
      "bility": 5584,
      "Ġsister": 5585,
      "Ġcompanies": 5586,
      "Ġhid": 5587,
      "Ġincid": 5588,
      "Ġtransmit": 5589,
      "tract": 5590,
      "glÃ©s": 5591,
      "Ġluck": 5592,
      "Ġfortal": 5593,
      "Ġrelaciones": 5594,
      "Ġinsp": 5595,
      "ĠRepresent": 5596,
      "Ġincluded": 5597,
      "Ġain": 5598,
      "Ġrepro": 5599,
      "ientÃŃf": 5600,
      "alls": 5601,
      "Ġcalcul": 5602,
      "Ġcantidad": 5603,
      "Ġdanger": 5604,
      "oce": 5605,
      "oth": 5606,
      "Ġdiab": 5607,
      "Ġlibro": 5608,
      "Ġfeliz": 5609,
      "Ġanalys": 5610,
      "Ġclaim": 5611,
      "Ve": 5612,
      "enso": 5613,
      "Ġactividad": 5614,
      "Ġrecent": 5615,
      "ĠEsto": 5616,
      "Ġpedir": 5617,
      "razy": 5618,
      "ots": 5619,
      "Ġestudios": 5620,
      "Ġestudi": 5621,
      "Ġbenefici": 5622,
      "Ġlegislation": 5623,
      "Ġkm": 5624,
      "Ġviejo": 5625,
      "bert": 5626,
      "Ġmensaje": 5627,
      "Ã¡logo": 5628,
      "ĠtÃŃo": 5629,
      "Ã©ase": 5630,
      "ualmente": 5631,
      "Ġvino": 5632,
      "ilt": 5633,
      "Ġhuh": 5634,
      "Ġdesta": 5635,
      "Parece": 5636,
      "Ġopportunity": 5637,
      "Much": 5638,
      "Ġalta": 5639,
      "Ġemb": 5640,
      "fortun": 5641,
      "Ġgrave": 5642,
      "Ġreducir": 5643,
      "Ġvest": 5644,
      "ĠPan": 5645,
      "ĠInstitu": 5646,
      "Ġmiles": 5647,
      "Ġgreater": 5648,
      "Ġcrecimiento": 5649,
      "top": 5650,
      "Ġmission": 5651,
      "Ġfair": 5652,
      "Ġfast": 5653,
      "Ġpain": 5654,
      "ĠYOU": 5655,
      "Ġcalle": 5656,
      "Ġedif": 5657,
      "Ġtales": 5658,
      "arth": 5659,
      "Ġfiesta": 5660,
      "Ġdemostr": 5661,
      "Ġ1997": 5662,
      "Ġindustrial": 5663,
      "Ġhurt": 5664,
      "Ġ)": 5665,
      "ĠmÃŃn": 5666,
      "Ġcomien": 5667,
      "Ġlev": 5668,
      "Ġplante": 5669,
      "Ġconsigu": 5670,
      "ariat": 5671,
      "iers": 5672,
      "Ġcad": 5673,
      "Ġdisfr": 5674,
      "Ġmerc": 5675,
      "ĠtendrÃ¡": 5676,
      "Ġchanges": 5677,
      "Ġech": 5678,
      "Ġvel": 5679,
      "Ġesperar": 5680,
      "Ġbarr": 5681,
      "Ġpertin": 5682,
      "Ġterm": 5683,
      "Tell": 5684,
      "ĠejecuciÃ³n": 5685,
      "plaz": 5686,
      "Ġremain": 5687,
      "Ġsite": 5688,
      "ĠBen": 5689,
      "Ġtemper": 5690,
      "Ġcombat": 5691,
      "ĠÃ¡mbito": 5692,
      "Ġfem": 5693,
      "Ġinterc": 5694,
      "Ġcompetit": 5695,
      "Ven": 5696,
      "Ġhot": 5697,
      "itional": 5698,
      "see": 5699,
      "Inform": 5700,
      "Ġsola": 5701,
      "Ã¡fico": 5702,
      "quir": 5703,
      "Ġenci": 5704,
      "Ġsele": 5705,
      "Ġacus": 5706,
      "fÃŃa": 5707,
      "Ġdia": 5708,
      "orÃŃa": 5709,
      "cience": 5710,
      "Ġ1996": 5711,
      "ĠserÃ¡n": 5712,
      "Ġpasando": 5713,
      "Ġpurpose": 5714,
      "Ġstatus": 5715,
      "iam": 5716,
      "Ġ..": 5717,
      "Ġmol": 5718,
      "oub": 5719,
      "Ġadvan": 5720,
      "Ġpotential": 5721,
      "Even": 5722,
      "Ġbecame": 5723,
      "Ġexperiment": 5724,
      "rÃ³": 5725,
      "Ġhog": 5726,
      "ford": 5727,
      "Ġfron": 5728,
      "Ġusu": 5729,
      "itting": 5730,
      "Ġdescubr": 5731,
      "mm": 5732,
      "ousand": 5733,
      "ĠParte": 5734,
      "Ġmorir": 5735,
      "===": 5736,
      "Ġcontext": 5737,
      "oral": 5738,
      "Ġfres": 5739,
      "Ġreported": 5740,
      "imismo": 5741,
      "Ġcrime": 5742,
      "void": 5743,
      "ffairs": 5744,
      "ĠGlobal": 5745,
      "Ġcree": 5746,
      "Ġbirth": 5747,
      "ĠcrÃ©": 5748,
      "ĠFrank": 5749,
      "28": 5750,
      "Ġaire": 5751,
      "Ġpuntos": 5752,
      "Ġsolid": 5753,
      "Ġtechnology": 5754,
      "Ġdim": 5755,
      "ema": 5756,
      "ĠPrograma": 5757,
      "Ġgrad": 5758,
      "Br": 5759,
      "uan": 5760,
      "Ġdial": 5761,
      "Ġfile": 5762,
      "ĠvÃŃctimas": 5763,
      "Ġaleg": 5764,
      "Ġprest": 5765,
      "2001": 5766,
      "Ġpatients": 5767,
      "ĠlegislaciÃ³n": 5768,
      "ĠhabitaciÃ³n": 5769,
      "Ġchoice": 5770,
      "isation": 5771,
      "urre": 5772,
      "Ġcontacto": 5773,
      "Hola": 5774,
      "ede": 5775,
      "Ġperder": 5776,
      "Ġusar": 5777,
      "ĠNot": 5778,
      "ĠAmÃ©rica": 5779,
      "ĠFrance": 5780,
      "Ġgrowth": 5781,
      "Ġcaf": 5782,
      "Ġessential": 5783,
      "ĠVer": 5784,
      "Ġcamp": 5785,
      "ĠTrans": 5786,
      "Sr": 5787,
      "ram": 5788,
      "ĠLas": 5789,
      "Ġcompromiso": 5790,
      "xico": 5791,
      "Ġcrazy": 5792,
      "ĠmisiÃ³n": 5793,
      "ĠgÃ©n": 5794,
      "ĠDiv": 5795,
      "istÃ¡n": 5796,
      "Ġ35": 5797,
      "uela": 5798,
      "Ġconjunto": 5799,
      "ker": 5800,
      "Ġculpa": 5801,
      "used": 5802,
      "Ġstra": 5803,
      "Ġcreate": 5804,
      "cepciÃ³n": 5805,
      "Ġregionales": 5806,
      "EP": 5807,
      "Ġperten": 5808,
      "Ġprovides": 5809,
      "Ġbuscando": 5810,
      "Ġjusticia": 5811,
      "CP": 5812,
      "Ġconsecu": 5813,
      "jud": 5814,
      "uit": 5815,
      "ĠNe": 5816,
      "Ġign": 5817,
      "Ġabajo": 5818,
      "Ġentender": 5819,
      "2000": 5820,
      "laro": 5821,
      "asa": 5822,
      "Ġquienes": 5823,
      "lament": 5824,
      "Ġrule": 5825,
      "ĠDemocr": 5826,
      "etas": 5827,
      "Ġacom": 5828,
      "Ġstatement": 5829,
      "Ġweapons": 5830,
      "ĠAugust": 5831,
      "Dios": 5832,
      "icionales": 5833,
      "ĠHol": 5834,
      "Ġhermos": 5835,
      "Ġmismos": 5836,
      "Ġdolor": 5837,
      "Ġtro": 5838,
      "ombr": 5839,
      "Ġcredit": 5840,
      "gest": 5841,
      "yer": 5842,
      "itness": 5843,
      "quis": 5844,
      "ĠOf": 5845,
      "According": 5846,
      "27": 5847,
      "Ġscar": 5848,
      "umen": 5849,
      "ĠpodrÃŃan": 5850,
      "Ġniveles": 5851,
      "Ġagreed": 5852,
      "Ġsimplemente": 5853,
      "Ġdeep": 5854,
      "Ġfaith": 5855,
      "Ġvigil": 5856,
      "set": 5857,
      "ĠAut": 5858,
      "Ġflu": 5859,
      "Ġpobreza": 5860,
      "ria": 5861,
      "Ġran": 5862,
      "Ġtran": 5863,
      "Ġrelativa": 5864,
      "Ġerror": 5865,
      "Ġvulner": 5866,
      "ĠCre": 5867,
      "Ġproceed": 5868,
      "More": 5869,
      "Ġbol": 5870,
      "ĠArab": 5871,
      "Ġearth": 5872,
      "Ġsubmitted": 5873,
      "Ġfear": 5874,
      "Ġbroad": 5875,
      "Ġvigor": 5876,
      "pon": 5877,
      "osto": 5878,
      "Ġcreated": 5879,
      "ĠJapan": 5880,
      "engu": 5881,
      "alt": 5882,
      "ĠSub": 5883,
      "ĠOn": 5884,
      "Ġdirectamente": 5885,
      "Ġfrecu": 5886,
      "bel": 5887,
      "Ġconcept": 5888,
      "Ġtelling": 5889,
      "ĠMiss": 5890,
      "Ġacciones": 5891,
      "ĠeconÃ³mico": 5892,
      "igen": 5893,
      "Ġpresident": 5894,
      "Ġfuerzas": 5895,
      "Ind": 5896,
      "upid": 5897,
      "bruary": 5898,
      "Ġrunning": 5899,
      "Ġelementos": 5900,
      "ĠcientÃŃf": 5901,
      "Ġvir": 5902,
      "Ġrestaur": 5903,
      "ctions": 5904,
      "Ġpermitir": 5905,
      "ĠfinanciaciÃ³n": 5906,
      "Since": 5907,
      "Ġspecif": 5908,
      "Em": 5909,
      "Ġrein": 5910,
      "Ġpred": 5911,
      "Ġpropuestas": 5912,
      "Ġdiez": 5913,
      "Ġmigr": 5914,
      "isiera": 5915,
      "Ġexer": 5916,
      "Ġrelativas": 5917,
      "Ġ80": 5918,
      "Ġadop": 5919,
      "Ġdirectly": 5920,
      "Ġescap": 5921,
      "isiones": 5922,
      "owers": 5923,
      "Ġexch": 5924,
      "Ġutilizar": 5925,
      "Ġdiferente": 5926,
      "ĠtecnologÃŃa": 5927,
      "Ġreact": 5928,
      "Ġtravel": 5929,
      "uencias": 5930,
      "Ġacross": 5931,
      "Ġmunicip": 5932,
      "Ġdecisions": 5933,
      "Take": 5934,
      "Ġwhose": 5935,
      "ozco": 5936,
      "EA": 5937,
      "Ġhago": 5938,
      "Ġdirector": 5939,
      "ĠDavid": 5940,
      "Pres": 5941,
      "uera": 5942,
      "Ġdomin": 5943,
      "Ġprol": 5944,
      "Ġprovisional": 5945,
      "Ġwhatever": 5946,
      "izados": 5947,
      "Ġllamada": 5948,
      "Ġfilm": 5949,
      "Ġido": 5950,
      "Ġgiving": 5951,
      "Ġamend": 5952,
      "Ġpaper": 5953,
      "Ġfom": 5954,
      "Ġcourt": 5955,
      "Ġadelante": 5956,
      "arter": 5957,
      "itz": 5958,
      "Ġmalo": 5959,
      "Ã©rd": 5960,
      "Ġlad": 5961,
      "Ġerr": 5962,
      "Ġparticipation": 5963,
      "Ġlejos": 5964,
      "cida": 5965,
      "Ġpaid": 5966,
      "Ġconsideration": 5967,
      "Ã©gimen": 5968,
      "Ġconcentr": 5969,
      "-Â¿": 5970,
      "pret": 5971,
      "ĠSud": 5972,
      "ĠMart": 5973,
      "Ġbox": 5974,
      "Ġrecibir": 5975,
      "glish": 5976,
      "Ġcarta": 5977,
      "Ġpeligros": 5978,
      "Ġnave": 5979,
      "Ġtoma": 5980,
      "ĠadministraciÃ³n": 5981,
      "Ġcuarto": 5982,
      "Ġcompos": 5983,
      "????": 5984,
      "OL": 5985,
      "Ġones": 5986,
      "ĠRom": 5987,
      "Ġoffic": 5988,
      "Ġletter": 5989,
      "Ġoperations": 5990,
      "Ġcambios": 5991,
      "Ġpromover": 5992,
      "friend": 5993,
      "Ġpensando": 5994,
      "Ġquieren": 5995,
      "ĠestarÃ¡": 5996,
      "estos": 5997,
      "ĠVen": 5998,
      "Ġdivert": 5999,
      "Ġencant": 6000,
      "Ġprofessional": 6001,
      "rel": 6002,
      "Ġbes": 6003,
      "Thank": 6004,
      "Ġofrece": 6005,
      "Ġpromote": 6006,
      "ĠEconomic": 6007,
      "ington": 6008,
      "ĠPen": 6009,
      "got": 6010,
      "ĠmÃ©d": 6011,
      "MA": 6012,
      "ĠaÃ±": 6013,
      "ulf": 6014,
      "uebl": 6015,
      "ĠTV": 6016,
      "Ġanymore": 6017,
      "rimonio": 6018,
      "Cada": 6019,
      "ey": 6020,
      "Ġworked": 6021,
      "Ġorganismos": 6022,
      "ĠSch": 6023,
      "Ġrefiere": 6024,
      "Ġcomunitar": 6025,
      "Ġincreasing": 6026,
      "Ġentrada": 6027,
      "ufact": 6028,
      "SegÃºn": 6029,
      "ii": 6030,
      "Ġ*": 6031,
      "ĠWhere": 6032,
      "iber": 6033,
      "ogue": 6034,
      "ĠeconomÃŃa": 6035,
      "book": 6036,
      "hold": 6037,
      "mento": 6038,
      "Ġsave": 6039,
      "Ġ1995": 6040,
      "Ġbeginning": 6041,
      "Ma": 6042,
      "Ġdesper": 6043,
      "Ġconfirm": 6044,
      "Ġlleva": 6045,
      "ichael": 6046,
      "you": 6047,
      "ĠHigh": 6048,
      "Ġimper": 6049,
      "legal": 6050,
      "Ġbelow": 6051,
      "Ġ90": 6052,
      "Ġstandards": 6053,
      "Ġconsecuencia": 6054,
      "Co": 6055,
      "ÃŃgen": 6056,
      "ĠVI": 6057,
      "Ġevents": 6058,
      "Ġfeeling": 6059,
      "Ġrecomendaciones": 6060,
      "sta": 6061,
      "Ġdestru": 6062,
      "Ġprem": 6063,
      "Ġmagn": 6064,
      "Ġlanguage": 6065,
      "Ġtir": 6066,
      "ĠinglÃ©s": 6067,
      "Ġlack": 6068,
      "Ġneigh": 6069,
      "Ġpoints": 6070,
      "Ġjudicial": 6071,
      "ĠprÃ¡cticas": 6072,
      "Ġnerv": 6073,
      "ĠCam": 6074,
      "istics": 6075,
      "ĠperiÃ³": 6076,
      "pain": 6077,
      "paÃ±": 6078,
      "din": 6079,
      "verty": 6080,
      "Ġworth": 6081,
      "CuÃ¡l": 6082,
      "Ġenvironmental": 6083,
      "Ġsurpr": 6084,
      "//": 6085,
      "Sal": 6086,
      "Ġ2014": 6087,
      "nie": 6088,
      "Ġreh": 6089,
      "Ġtrouble": 6090,
      "onstr": 6091,
      "Ġdesempe": 6092,
      "Ġmg": 6093,
      "ints": 6094,
      "Ġparticipar": 6095,
      "tp": 6096,
      "Ġpec": 6097,
      "ĠBur": 6098,
      "Ġhayan": 6099,
      "Ġrepresentative": 6100,
      "Ġauthority": 6101,
      "Ġregarding": 6102,
      "Ġemployment": 6103,
      "hood": 6104,
      "uta": 6105,
      "Ġways": 6106,
      "ĠTO": 6107,
      "Ġrecommendations": 6108,
      "Ġhall": 6109,
      "Ġhund": 6110,
      "2002": 6111,
      "Ġthousand": 6112,
      "etic": 6113,
      "cell": 6114,
      "Ġappreci": 6115,
      "Ġsabemos": 6116,
      "ĠartÃŃculos": 6117,
      "Ġrequis": 6118,
      "Ġ70": 6119,
      "ball": 6120,
      "Ġcompens": 6121,
      "Ġllamar": 6122,
      "reas": 6123,
      "Ġpoverty": 6124,
      "Estos": 6125,
      "Ġcontrat": 6126,
      "Ġbasic": 6127,
      "Ġnaturaleza": 6128,
      "read": 6129,
      "ĠBill": 6130,
      "Ġmitad": 6131,
      "Ãºp": 6132,
      "ĠEconÃ³m": 6133,
      "ze": 6134,
      "Ġagree": 6135,
      "Ġvenido": 6136,
      "lin": 6137,
      "umber": 6138,
      "Ġcama": 6139,
      "Ġambos": 6140,
      "Ġaren": 6141,
      "ĠelectrÃ³n": 6142,
      "Ġmessage": 6143,
      "ICE": 6144,
      "gon": 6145,
      "Ġterritorio": 6146,
      "Ġconsidera": 6147,
      "Ġestrategia": 6148,
      "Ġtouch": 6149,
      "ark": 6150,
      "Ġfoot": 6151,
      "Ġplanes": 6152,
      "Ġdrive": 6153,
      "porteur": 6154,
      "Ġvehic": 6155,
      "fficient": 6156,
      "ĠAfrican": 6157,
      "iete": 6158,
      "Ġproperty": 6159,
      "Ġbi": 6160,
      "Ġrepresentantes": 6161,
      "Ġexactamente": 6162,
      "ĠÃ©ste": 6163,
      "Ġmantenimiento": 6164,
      "57": 6165,
      "itation": 6166,
      "ĠrÃ©gimen": 6167,
      "Ġequiv": 6168,
      "21": 6169,
      "ulg": 6170,
      "ĠPartes": 6171,
      "ĠbebÃ©": 6172,
      "Ġaspectos": 6173,
      "Ġavoid": 6174,
      "anz": 6175,
      "Ġdebo": 6176,
      "Ġgobiernos": 6177,
      "iation": 6178,
      "ris": 6179,
      "ĠHouse": 6180,
      "Ġpregunt": 6181,
      "Ġbehalf": 6182,
      "://": 6183,
      "ham": 6184,
      "jero": 6185,
      "Ã©st": 6186,
      "Ġdocumentos": 6187,
      "Ġcumplir": 6188,
      "ĠpÃ¡gina": 6189,
      "ko": 6190,
      "Ġcorpor": 6191,
      "Ġprocedimientos": 6192,
      "Ġhigher": 6193,
      "ÃŃritu": 6194,
      "ĠOrganizaciÃ³n": 6195,
      "OJ": 6196,
      "Ġsun": 6197,
      "Ġrealizar": 6198,
      "Ġcontexto": 6199,
      "ĠFebruary": 6200,
      "biliz": 6201,
      "ule": 6202,
      "Ġthus": 6203,
      "Ġsentir": 6204,
      "Ġrevis": 6205,
      "Ġeffects": 6206,
      "ĠMer": 6207,
      "Ġmane": 6208,
      "Ġintens": 6209,
      "ternal": 6210,
      "Ġterrible": 6211,
      "estruct": 6212,
      "istros": 6213,
      "ĠIII": 6214,
      "Ġmeetings": 6215,
      "ĠtÃ©cnica": 6216,
      "Ġsmo": 6217,
      "orry": 6218,
      "ĠharÃ©": 6219,
      "Ġpubl": 6220,
      "Ġapl": 6221,
      "Ġfebrero": 6222,
      "Ġejecut": 6223,
      "Ġum": 6224,
      "Ġcel": 6225,
      "bras": 6226,
      "ccion": 6227,
      "Ġlengu": 6228,
      "Ġkil": 6229,
      "Ã©rcito": 6230,
      "ĠFrancia": 6231,
      "ĠCommissioner": 6232,
      "Ġboys": 6233,
      "DP": 6234,
      "rar": 6235,
      "ionales": 6236,
      "ĠEast": 6237,
      "itten": 6238,
      "Ġreceive": 6239,
      "Ġempezar": 6240,
      "ĠProgramme": 6241,
      "ĠatrÃ¡s": 6242,
      "Ġscient": 6243,
      "Ġcompetencia": 6244,
      "Ġanimales": 6245,
      "Ġresponse": 6246,
      "Ġarres": 6247,
      "Ġbelong": 6248,
      "Ġdistin": 6249,
      "IA": 6250,
      "Estas": 6251,
      "EEC": 6252,
      "Hace": 6253,
      "itory": 6254,
      "Buen": 6255,
      "Ġsem": 6256,
      "ĠBer": 6257,
      "asons": 6258,
      "idores": 6259,
      "Ġarg": 6260,
      "Ġcool": 6261,
      "Ġdispuesto": 6262,
      "Ġtab": 6263,
      "Ġsch": 6264,
      "Ġmente": 6265,
      "Ġfac": 6266,
      "Ġdisap": 6267,
      "Ġagosto": 6268,
      "Ġchanged": 6269,
      "Ġduda": 6270,
      "While": 6271,
      "Ġcapt": 6272,
      "Ġsection": 6273,
      "hab": 6274,
      "Ġtraffic": 6275,
      "Ġanti": 6276,
      "Ġcircul": 6277,
      "Ġhiciste": 6278,
      "ĠTrabajo": 6279,
      "Ġsometimes": 6280,
      "att": 6281,
      "ĠreducciÃ³n": 6282,
      "eca": 6283,
      "Ġrelating": 6284,
      "Ġmoder": 6285,
      "Ġdijiste": 6286,
      "Ġforces": 6287,
      "Ġsick": 6288,
      "ctr": 6289,
      "Ġrural": 6290,
      "cons": 6291,
      "Ġcorrup": 6292,
      "ĠPaul": 6293,
      "56": 6294,
      "59": 6295,
      "rog": 6296,
      "Ġphoto": 6297,
      "Ġprepared": 6298,
      "CEE": 6299,
      "Ġvictims": 6300,
      "Ġshoot": 6301,
      "ĠpelÃŃcula": 6302,
      "ienta": 6303,
      "Ġclientes": 6304,
      "Ġsomebody": 6305,
      "iction": 6306,
      "Ġwelcome": 6307,
      "ĠMÃ©": 6308,
      "ueve": 6309,
      "Pr": 6310,
      "aza": 6311,
      "osta": 6312,
      "Ġhair": 6313,
      "Ġcuad": 6314,
      "ague": 6315,
      "Ġminister": 6316,
      "Ġformer": 6317,
      "Ġstrategy": 6318,
      "Ġtampoco": 6319,
      "Ġpena": 6320,
      "Ġoil": 6321,
      "Ġnorte": 6322,
      "Ġpagar": 6323,
      "Ġoccup": 6324,
      "Ġfondo": 6325,
      "uts": 6326,
      "Having": 6327,
      "idge": 6328,
      "Ġsegura": 6329,
      "Ġejercicio": 6330,
      "aren": 6331,
      "Ġlose": 6332,
      "Ġwhite": 6333,
      "ĠGood": 6334,
      "Ġmanifest": 6335,
      "ĠmÃºsica": 6336,
      "Os": 6337,
      "fin": 6338,
      "ored": 6339,
      "Ġconden": 6340,
      "ulos": 6341,
      "thern": 6342,
      "Ġactions": 6343,
      "Ġteniendo": 6344,
      "Ġbecom": 6345,
      "Ġhabla": 6346,
      "Ġprinciples": 6347,
      "ĠdeberÃŃan": 6348,
      "Ġlocated": 6349,
      "ĠpolÃŃticos": 6350,
      "Ġgod": 6351,
      "estic": 6352,
      "Ġamen": 6353,
      "Ġorganization": 6354,
      "Ġrefug": 6355,
      "Ġfunds": 6356,
      "Ġconstitut": 6357,
      "Ã¡mara": 6358,
      "inian": 6359,
      "ĠRE": 6360,
      "ĠNav": 6361,
      "Ġmuchach": 6362,
      "Ġexisting": 6363,
      "lemania": 6364,
      "cÃ³mo": 6365,
      "Ġsort": 6366,
      "Ġasking": 6367,
      "Ġminim": 6368,
      "lemen": 6369,
      "ĠSur": 6370,
      "ulaciÃ³n": 6371,
      "ĠBuen": 6372,
      "Ġrepresentatives": 6373,
      "ĠOrganization": 6374,
      "light": 6375,
      "ĠCentro": 6376,
      "ĠEso": 6377,
      "Ġfigure": 6378,
      "Ġcurrently": 6379,
      "Ġenm": 6380,
      "Ġleaving": 6381,
      "enes": 6382,
      "Ġdan": 6383,
      "ami": 6384,
      "ĠpÃ©rd": 6385,
      "Ġlu": 6386,
      "Ġvar": 6387,
      "Ġasign": 6388,
      "Ġjustice": 6389,
      "Ġprinciple": 6390,
      "ĠdeberÃ¡": 6391,
      "Ġindustria": 6392,
      "Ġcurso": 6393,
      "ĠlÃŃmit": 6394,
      "Will": 6395,
      "aged": 6396,
      "ĠIns": 6397,
      "jeron": 6398,
      "Ġmodelo": 6399,
      "Ġconocimiento": 6400,
      "Ġdemonstr": 6401,
      "Ġmicro": 6402,
      "Nadie": 6403,
      "Ġtrib": 6404,
      "bernamentales": 6405,
      "ĠRusia": 6406,
      "Ġanalysis": 6407,
      "erto": 6408,
      "Ġappoint": 6409,
      "Ġmuestra": 6410,
      "ĠWest": 6411,
      "ĠReino": 6412,
      "Ġaquellos": 6413,
      "Ġintercamb": 6414,
      "ĠHis": 6415,
      "Ġyours": 6416,
      "ĠpolÃŃtico": 6417,
      "Ġjoint": 6418,
      "Ġespeciales": 6419,
      "SE": 6420,
      "anish": 6421,
      "ĠDel": 6422,
      "Ġcontinued": 6423,
      "Ġprofesional": 6424,
      "Ġsubsid": 6425,
      "63": 6426,
      "reement": 6427,
      "Ġdistr": 6428,
      "Ġfelt": 6429,
      "Ġretir": 6430,
      "Ġscen": 6431,
      "Ġedit": 6432,
      "Those": 6433,
      "ueblos": 6434,
      "IR": 6435,
      "ĠDad": 6436,
      "ĠHey": 6437,
      "Ġimagin": 6438,
      "Sus": 6439,
      "bres": 6440,
      "bilidad": 6441,
      "orno": 6442,
      "ĠEduc": 6443,
      "oj": 6444,
      "MÃ¡s": 6445,
      "odos": 6446,
      "Ġfuego": 6447,
      "Ġorigen": 6448,
      "80": 6449,
      "bro": 6450,
      "Ġhate": 6451,
      "Ġinj": 6452,
      "Ġpeor": 6453,
      "Ġarrang": 6454,
      "Hasta": 6455,
      "ucion": 6456,
      "ĠAre": 6457,
      "Ġconsolid": 6458,
      "Ġdecide": 6459,
      "Ġproduce": 6460,
      "Ġhol": 6461,
      "Ġemo": 6462,
      "ĠSir": 6463,
      "Escu": 6464,
      "CN": 6465,
      "Ġbank": 6466,
      "Ġinfer": 6467,
      "Ġenfo": 6468,
      "ĠconstrucciÃ³n": 6469,
      "ĠEnglish": 6470,
      "Ġdraw": 6471,
      "ĠJesÃºs": 6472,
      "ĠcariÃ±o": 6473,
      "ancing": 6474,
      "UR": 6475,
      "Ġinfr": 6476,
      "Ġfranc": 6477,
      "Crees": 6478,
      "IM": 6479,
      "Ġgender": 6480,
      "Ġking": 6481,
      "Ã¡ticos": 6482,
      "Ġjugar": 6483,
      "Ġobten": 6484,
      "yle": 6485,
      "ĠEj": 6486,
      "Ġround": 6487,
      "Ġdipl": 6488,
      "ticles": 6489,
      "phas": 6490,
      "Ġmatters": 6491,
      "ĠYour": 6492,
      "wise": 6493,
      "Ġdific": 6494,
      "ĠsecciÃ³n": 6495,
      "Ġlugares": 6496,
      "Ġllegado": 6497,
      "Ġperdido": 6498,
      "Ġfiscal": 6499,
      "usion": 6500,
      "illed": 6501,
      "Ġtemas": 6502,
      "Ġterrorismo": 6503,
      "Ġpositive": 6504,
      "Ġcommunication": 6505,
      "Ġintelig": 6506,
      "58": 6507,
      "grad": 6508,
      "Ġreuniones": 6509,
      "CC": 6510,
      "Ġpray": 6511,
      "Ġham": 6512,
      "itable": 6513,
      "Ġrespeto": 6514,
      "Ġsolamente": 6515,
      "Ġthanks": 6516,
      "Ġgoods": 6517,
      "Ġfamilies": 6518,
      "PodrÃŃa": 6519,
      "Ġencima": 6520,
      "idor": 6521,
      "Ġtratando": 6522,
      "Ġlaws": 6523,
      "OD": 6524,
      "Ġbalance": 6525,
      "Â´": 6526,
      "onte": 6527,
      "arles": 6528,
      "Ġcompre": 6529,
      "Alguien": 6530,
      "Ellos": 6531,
      "OT": 6532,
      "Ġvill": 6533,
      "Ġestuvo": 6534,
      "ĠDef": 6535,
      "Ġmont": 6536,
      "ĠpresentaciÃ³n": 6537,
      "Ġcompletamente": 6538,
      "Gu": 6539,
      "ĠoÃŃdo": 6540,
      "ÃŃcol": 6541,
      "ĠIS": 6542,
      "Ãºa": 6543,
      "Ġnoted": 6544,
      "Ġparts": 6545,
      "Ġvalores": 6546,
      "Ġsumin": 6547,
      "Ġmanufact": 6548,
      "tempt": 6549,
      "Ġ1990": 6550,
      "Ġcaball": 6551,
      "ĠColomb": 6552,
      "Ġextrem": 6553,
      "Ġforest": 6554,
      "Ġhappens": 6555,
      "Ġhermana": 6556,
      "Ġfigura": 6557,
      "Ġsoftware": 6558,
      "ismos": 6559,
      "raft": 6560,
      "Ġdoll": 6561,
      "Ġmedical": 6562,
      "Ġactivity": 6563,
      "ĠÃ³rganos": 6564,
      "amen": 6565,
      "government": 6566,
      "Ġarma": 6567,
      "Ġinfra": 6568,
      "Ġinfluen": 6569,
      "UT": 6570,
      "rup": 6571,
      "Ġlie": 6572,
      "ĠharÃ¡": 6573,
      "ĠLA": 6574,
      "iental": 6575,
      "Ġsolution": 6576,
      "Ġterren": 6577,
      "Only": 6578,
      "ĠBoard": 6579,
      "Ġthroughout": 6580,
      "Ġborn": 6581,
      "ĠKe": 6582,
      "Ġprocedures": 6583,
      "hensive": 6584,
      "Ġfer": 6585,
      "Ġentiendo": 6586,
      "Ġentren": 6587,
      "Ġsale": 6588,
      "Ġsupone": 6589,
      "Ġeverybody": 6590,
      "Ġequipment": 6591,
      "ota": 6592,
      "Ġdoub": 6593,
      "Ġconex": 6594,
      "ĠSol": 6595,
      "ĠJim": 6596,
      "Ġcolle": 6597,
      "Ġfamilias": 6598,
      "Ġstage": 6599,
      "Car": 6600,
      "fully": 6601,
      "edores": 6602,
      "emia": 6603,
      "Ġalive": 6604,
      "Ġdispl": 6605,
      "Ġpenal": 6606,
      "enty": 6607,
      "igue": 6608,
      "Ġcarb": 6609,
      "Ġdelegation": 6610,
      "ĠcompaÃ±ÃŃa": 6611,
      "Ġtratar": 6612,
      "ecutive": 6613,
      "rÃ¡": 6614,
      "Ġled": 6615,
      "ĠEarth": 6616,
      "Ġdeseo": 6617,
      "Les": 6618,
      "Ġsoul": 6619,
      "adoras": 6620,
      "Ġge": 6621,
      "ĠPerman": 6622,
      "ĠGran": 6623,
      "Ġpartido": 6624,
      "Ġsecre": 6625,
      "Ġesperando": 6626,
      "Ġsexo": 6627,
      "Ġcompletely": 6628,
      "bil": 6629,
      "Ġliter": 6630,
      "Ġwitness": 6631,
      "Ġrange": 6632,
      "ĠYa": 6633,
      "Ġallowed": 6634,
      "Ã³sito": 6635,
      "Ġenfermedad": 6636,
      "Ġturned": 6637,
      "Ġigualdad": 6638,
      "ĠSpanish": 6639,
      "ĠRussian": 6640,
      "Ġsustainable": 6641,
      "Mientras": 6642,
      "Uno": 6643,
      "icion": 6644,
      "pen": 6645,
      "Ġcalls": 6646,
      "lav": 6647,
      "ecÃŃa": 6648,
      "Ġconsec": 6649,
      "guro": 6650,
      "Ġattack": 6651,
      "Ġchalleng": 6652,
      "Ġbag": 6653,
      "Ġmeant": 6654,
      "Ġestat": 6655,
      "Ġeconomy": 6656,
      "Ġdiscus": 6657,
      "ĠGermany": 6658,
      "Ġmonitoring": 6659,
      "Ġsav": 6660,
      "ĠSpain": 6661,
      "QuizÃ¡": 6662,
      "Ġrecons": 6663,
      "ĠDecision": 6664,
      "Ġcommitment": 6665,
      "Ġperformance": 6666,
      "oke": 6667,
      "Ġbail": 6668,
      "ĠSom": 6669,
      "ĠBank": 6670,
      "apaci": 6671,
      "Ġplaying": 6672,
      "mod": 6673,
      "Ã³v": 6674,
      "ĠTierra": 6675,
      "Ġstupid": 6676,
      "ĠDepartment": 6677,
      "ster": 6678,
      "Ġeuros": 6679,
      "ĠDi": 6680,
      "Ġplans": 6681,
      "Ġmatar": 6682,
      "Ġstudies": 6683,
      "ĠMiembros": 6684,
      "Ġconnect": 6685,
      "Ġub": 6686,
      "ering": 6687,
      "ows": 6688,
      "Ġasuntos": 6689,
      "ĠTim": 6690,
      "Ġfunciones": 6691,
      "ĠjurÃŃd": 6692,
      "Ġfloor": 6693,
      "Ġcampaign": 6694,
      "ĠgÃ©nero": 6695,
      "Ġsqu": 6696,
      "ividad": 6697,
      "Ġropa": 6698,
      "Ġrepresentante": 6699,
      "Ġstudents": 6700,
      "Ġmotor": 6701,
      "Ġcuidado": 6702,
      "rÃ©": 6703,
      "Ġ2015": 6704,
      "Ġhorr": 6705,
      "Ġpublished": 6706,
      "ports": 6707,
      "Ġshows": 6708,
      "Ġmaintain": 6709,
      "Ġnetwork": 6710,
      "Final": 6711,
      "Vale": 6712,
      "onios": 6713,
      "Ġreve": 6714,
      "ĠStr": 6715,
      "antos": 6716,
      "Espero": 6717,
      "iosa": 6718,
      "Ġrecuer": 6719,
      "Ġinterested": 6720,
      "ĠCuba": 6721,
      "Man": 6722,
      "yond": 6723,
      "Ġunif": 6724,
      "Ġvay": 6725,
      "Ġvaya": 6726,
      "ila": 6727,
      "Ġnoticias": 6728,
      "Ġseries": 6729,
      "ĠGeorge": 6730,
      "Ġcircun": 6731,
      "Ġdificult": 6732,
      "49": 6733,
      "vere": 6734,
      "etes": 6735,
      "ĠMad": 6736,
      "...?": 6737,
      "Ġattempt": 6738,
      "Ġcrist": 6739,
      "Ġinvestment": 6740,
      "ius": 6741,
      "onos": 6742,
      "ĠSim": 6743,
      "Ġdeg": 6744,
      "Ġhun": 6745,
      "Ġreasons": 6746,
      "Ġexci": 6747,
      "Ġtrial": 6748,
      "Ġmarido": 6749,
      "ĠEstÃ¡": 6750,
      "Ġtotalmente": 6751,
      "Ġjuris": 6752,
      "gle": 6753,
      "Ġpath": 6754,
      "Ġpage": 6755,
      "ĠpodrÃ¡n": 6756,
      "ĠdiscriminaciÃ³n": 6757,
      "ĠEspaÃ±a": 6758,
      "oner": 6759,
      "Ġhang": 6760,
      "Ġconcre": 6761,
      "Ġves": 6762,
      "Ġcoment": 6763,
      "abe": 6764,
      "Ġtrabajando": 6765,
      "Ġpresentar": 6766,
      "Ġcomplement": 6767,
      "Ġmeasure": 6768,
      "ĠPrim": 6769,
      "ends": 6770,
      "Ġpropiedad": 6771,
      "Ġrefle": 6772,
      "Ġdark": 6773,
      "Ġreference": 6774,
      "Ġdrogas": 6775,
      "Ġeficaz": 6776,
      "year": 6777,
      "Ġmucha": 6778,
      "Ġgrab": 6779,
      "Ġsacr": 6780,
      "Ġpeligro": 6781,
      "Ġcircum": 6782,
      "IF": 6783,
      "Ġconfir": 6784,
      "Ġaplicar": 6785,
      "ĠdelegaciÃ³n": 6786,
      "EM": 6787,
      "Ġht": 6788,
      "irs": 6789,
      "Ġexcl": 6790,
      "Ġsorpr": 6791,
      "Ġexpressed": 6792,
      "Ġdices": 6793,
      "ĠdetrÃ¡s": 6794,
      "lega": 6795,
      "Ġarms": 6796,
      "Ġmenudo": 6797,
      "Ġkept": 6798,
      "ĠcontinuaciÃ³n": 6799,
      "ĠÃ¡rea": 6800,
      "Necesito": 6801,
      "Ġvivo": 6802,
      "Ġalco": 6803,
      "Ġhumano": 6804,
      "2009": 6805,
      "ĠNorth": 6806,
      "izing": 6807,
      "Ġvoz": 6808,
      "Ġcovered": 6809,
      "ĠAgreement": 6810,
      "Pues": 6811,
      "UE": 6812,
      "estar": 6813,
      "Ġacuerdos": 6814,
      "ountain": 6815,
      "Ġpresencia": 6816,
      "Ġmarav": 6817,
      "Ġ1994": 6818,
      "Ġaproxim": 6819,
      "Ġmandato": 6820,
      "ĠMinisterio": 6821,
      "Ġcart": 6822,
      "sequ": 6823,
      "Ġestablecido": 6824,
      "Ġconsequ": 6825,
      "ĠAcuerdo": 6826,
      "illos": 6827,
      "Ġpago": 6828,
      "Ġinvent": 6829,
      "Ġconfianza": 6830,
      "Ġfunction": 6831,
      "Ġfinally": 6832,
      "Ġdiferencia": 6833,
      "Ġcumplimiento": 6834,
      "Ġrech": 6835,
      "ĠCON": 6836,
      "Ġonline": 6837,
      "Ġactos": 6838,
      "ificados": 6839,
      "Ġgenial": 6840,
      "Ġleyes": 6841,
      "Her": 6842,
      "uos": 6843,
      "Ġremains": 6844,
      "48": 6845,
      "ulas": 6846,
      "ograph": 6847,
      "Ġencontrado": 6848,
      "Ġdicen": 6849,
      "orme": 6850,
      "rown": 6851,
      "ticos": 6852,
      "ĠpensÃ©": 6853,
      "70": 6854,
      "Ġclearly": 6855,
      "ĠlÃŃder": 6856,
      "Ġprices": 6857,
      "Ġprecis": 6858,
      "Ġregiones": 6859,
      "Ġdestino": 6860,
      "ĠpreocupaciÃ³n": 6861,
      "alled": 6862,
      "Ġusually": 6863,
      "Ġmista": 6864,
      "Ġidio": 6865,
      "iveness": 6866,
      "CR": 6867,
      "Give": 6868,
      "onom": 6869,
      "Ġsell": 6870,
      "Ġsud": 6871,
      "Ġchicas": 6872,
      "ounid": 6873,
      "licto": 6874,
      "Ġdeja": 6875,
      "Ġexped": 6876,
      "Ġcondition": 6877,
      "Ġsosp": 6878,
      "Ġpant": 6879,
      "ĠMis": 6880,
      "thes": 6881,
      "Ġstation": 6882,
      "Ġinterpret": 6883,
      "43": 6884,
      "Ġpueblos": 6885,
      "Ġcatch": 6886,
      "anas": 6887,
      "cious": 6888,
      "ĠAlemania": 6889,
      "ĠON": 6890,
      "Ġmovimiento": 6891,
      "ĠMexico": 6892,
      "Ġqueremos": 6893,
      "Ġautoridad": 6894,
      "Ġproposals": 6895,
      "ĠCarib": 6896,
      "Ġpiens": 6897,
      "Ġsustitu": 6898,
      "Ġalcanzar": 6899,
      "Ġdisfrut": 6900,
      "ann": 6901,
      "Ġloco": 6902,
      "iese": 6903,
      "Ġoperation": 6904,
      "arlie": 6905,
      "ĠParties": 6906,
      "Ġexpected": 6907,
      "Ã¶": 6908,
      "Ġsong": 6909,
      "Ġinn": 6910,
      "Ġentit": 6911,
      "pping": 6912,
      "Ġfinancieros": 6913,
      "ĠCooper": 6914,
      "During": 6915,
      "First": 6916,
      "IG": 6917,
      "ju": 6918,
      "amÃ¡s": 6919,
      "fe": 6920,
      "Ġcielo": 6921,
      "elines": 6922,
      "Ġcomplic": 6923,
      "graciÃ³n": 6924,
      "Ġintereses": 6925,
      "Ġwindo": 6926,
      "Ġaprend": 6927,
      "Sub": 6928,
      "inter": 6929,
      "Ġlect": 6930,
      "Ġsearch": 6931,
      "etros": 6932,
      "ĠSoci": 6933,
      "Ġwaste": 6934,
      "Ġcompleto": 6935,
      "Ġestablecimiento": 6936,
      "Ã©tica": 6937,
      "ĠMus": 6938,
      "ips": 6939,
      "Ġobra": 6940,
      "Ġcomet": 6941,
      "Ġpuestos": 6942,
      "Ġmenor": 6943,
      "Ġconflicto": 6944,
      "Ġfactor": 6945,
      "Does": 6946,
      "Ġnecesitamos": 6947,
      "Ġdomestic": 6948,
      "Ġdestroy": 6949,
      "ĠAlex": 6950,
      "Ġstandard": 6951,
      "ÃŃstica": 6952,
      "Ġaumentar": 6953,
      "ĠDepartamento": 6954,
      "Ġexchange": 6955,
      "Ġamenaz": 6956,
      "Ġsiete": 6957,
      "rew": 6958,
      "ĠKen": 6959,
      "ilding": 6960,
      "Â».": 6961,
      "CH": 6962,
      "Ġdisci": 6963,
      "ĠConst": 6964,
      "Ġcounter": 6965,
      "Ġdinner": 6966,
      "Ġcharge": 6967,
      "Ġimmediately": 6968,
      "Ġdress": 6969,
      "Ġsemin": 6970,
      "iling": 6971,
      "para": 6972,
      "Ġsupervis": 6973,
      "ĠutilizaciÃ³n": 6974,
      "Ġblog": 6975,
      "Ġelecciones": 6976,
      "Ġnegocio": 6977,
      "Ġinstrumentos": 6978,
      "Ġingresos": 6979,
      "Ġfing": 6980,
      "icado": 6981,
      "utr": 6982,
      "Ġforms": 6983,
      "Ġreduce": 6984,
      "Ġcommitted": 6985,
      "Ġphysical": 6986,
      "Ġpercent": 6987,
      "Ġdismin": 6988,
      "cles": 6989,
      "Ġdefend": 6990,
      "Ġmovement": 6991,
      "Ġannoun": 6992,
      "Hemos": 6993,
      "Ġâ": 6994,
      "ĠBol": 6995,
      "ĠMinistry": 6996,
      "Ġpsy": 6997,
      "Ġactive": 6998,
      "Ġ500": 6999,
      "miss": 7000,
      "ĠBrus": 7001,
      "ĠMÃ©xico": 7002,
      "PA": 7003,
      "Wait": 7004,
      "pat": 7005,
      "Ġcommand": 7006,
      "term": 7007,
      "Ġverte": 7008,
      "Ġinterests": 7009,
      "Ġlooked": 7010,
      "Ġmesa": 7011,
      "ĠSuper": 7012,
      "ĠhabrÃ¡": 7013,
      "Ġeuropea": 7014,
      "ancy": 7015,
      "Ġvoc": 7016,
      "urb": 7017,
      "aga": 7018,
      "Ġprevis": 7019,
      "Ġrequested": 7020,
      "ĠKingdom": 7021,
      "ĠacompaÃ±": 7022,
      "governmental": 7023,
      "cuse": 7024,
      "Ġflex": 7025,
      "Ġescon": 7026,
      "Ġplanning": 7027,
      "Ġsimply": 7028,
      "Ġbuenas": 7029,
      "Ġconcret": 7030,
      "Ġequivoc": 7031,
      "Ġconsecuencias": 7032,
      "Ġseven": 7033,
      "Ġestabas": 7034,
      "Ġurg": 7035,
      "ĠmuriÃ³": 7036,
      "Ġgentlemen": 7037,
      "dam": 7038,
      "Ġiz": 7039,
      "Ġrock": 7040,
      "ertas": 7041,
      "Ġhumanitarian": 7042,
      "Ġvec": 7043,
      "Ġabord": 7044,
      "Ġprovin": 7045,
      "ĠUniversity": 7046,
      "ĠÃ¡r": 7047,
      "ĠCity": 7048,
      "Ġsuici": 7049,
      "Ġasc": 7050,
      "Ġdesea": 7051,
      "aco": 7052,
      "33": 7053,
      "Other": 7054,
      "Ġculture": 7055,
      "Ġestablishment": 7056,
      "Ġextraordin": 7057,
      "Ġpressure": 7058,
      "Entre": 7059,
      "Ġpicture": 7060,
      "DÃ©j": 7061,
      "Part": 7062,
      "Ġsaben": 7063,
      "Ġensay": 7064,
      "Ġhttp": 7065,
      "55": 7066,
      "90": 7067,
      "Ġarrest": 7068,
      "ĠVo": 7069,
      "Ġpalest": 7070,
      "enov": 7071,
      "Ġofrecer": 7072,
      "yan": 7073,
      "Ġ==": 7074,
      "Ġacaba": 7075,
      "Ġprovoc": 7076,
      "Ġwritten": 7077,
      "Ġdign": 7078,
      "umbre": 7079,
      "Ġcontent": 7080,
      "enses": 7081,
      "Ġdebes": 7082,
      "Ġdocuments": 7083,
      "Ġfuncionarios": 7084,
      "PensÃ©": 7085,
      "ĠaÃ±ad": 7086,
      "Ġhundred": 7087,
      "UL": 7088,
      "ead": 7089,
      "Ã¡is": 7090,
      "Ġplaces": 7091,
      "razil": 7092,
      "dio": 7093,
      "ĠdiÃ¡logo": 7094,
      "Ġcalling": 7095,
      "Ġcentros": 7096,
      "Ġcontrario": 7097,
      "Ġmala": 7098,
      "Ġmotivo": 7099,
      "Supongo": 7100,
      "Ġhagas": 7101,
      "ĠFondo": 7102,
      "ĠEsta": 7103,
      "Ġcell": 7104,
      "Ġwrite": 7105,
      "Ġbenefit": 7106,
      "mercial": 7107,
      "Ab": 7108,
      "Gr": 7109,
      "part": 7110,
      "Ġajust": 7111,
      "agement": 7112,
      "ĠOs": 7113,
      "Ġemphas": 7114,
      "Ġagencies": 7115,
      "ĠDecisiÃ³n": 7116,
      "Ġtard": 7117,
      "ĠBob": 7118,
      "Ġpolit": 7119,
      "2008": 7120,
      "Ġproviding": 7121,
      "Ġjuicio": 7122,
      "Ġnoches": 7123,
      "ĠAsuntos": 7124,
      "ĠArgent": 7125,
      "Ġtrato": 7126,
      "Ġadoptar": 7127,
      "Ġlimited": 7128,
      "Ġappear": 7129,
      "Ġeye": 7130,
      "icity": 7131,
      "Ġstress": 7132,
      "Ġvisitas": 7133,
      "Ġinternal": 7134,
      "iendas": 7135,
      "ĠdisposiciÃ³n": 7136,
      "Ġconnection": 7137,
      "Ġduty": 7138,
      "cise": 7139,
      "Ġfif": 7140,
      "Ġwebs": 7141,
      "Ġexpertos": 7142,
      "Ġcomunidades": 7143,
      "Ġprobablemente": 7144,
      "Ġannual": 7145,
      "inc": 7146,
      "ĠPe": 7147,
      "cape": 7148,
      "eping": 7149,
      "Ġfeed": 7150,
      "ĠAffairs": 7151,
      "ĠOl": 7152,
      "cause": 7153,
      "Ġmarcha": 7154,
      "ĠprÃ³ximo": 7155,
      "Two": 7156,
      "Ġfines": 7157,
      "ĠWar": 7158,
      "Ġpreguntar": 7159,
      "Ġpriority": 7160,
      "Ġsweet": 7161,
      "Ġsn": 7162,
      "Ġlady": 7163,
      "ked": 7164,
      "Ġsen": 7165,
      "tead": 7166,
      "eler": 7167,
      "Ġbienes": 7168,
      "Ġgenerales": 7169,
      "Ġapplicable": 7170,
      "Ġcontained": 7171,
      "ĠcolaboraciÃ³n": 7172,
      "Hoy": 7173,
      "Listen": 7174,
      "aras": 7175,
      "ibly": 7176,
      "Ġstreet": 7177,
      "Ġtraer": 7178,
      "poses": 7179,
      "ĠpromociÃ³n": 7180,
      "Ġalimentos": 7181,
      "Ġencarg": 7182,
      "igenous": 7183,
      "Cl": 7184,
      "Sec": 7185,
      "Would": 7186,
      "oro": 7187,
      "Ġsiglo": 7188,
      "ĠcoordinaciÃ³n": 7189,
      "ĠprÃ³xima": 7190,
      "Ġenfrent": 7191,
      "Ġedificio": 7192,
      "Ġfeder": 7193,
      "rote": 7194,
      "Ġstates": 7195,
      "Ġcuentas": 7196,
      "cera": 7197,
      "anci": 7198,
      "vey": 7199,
      "uran": 7200,
      "tero": 7201,
      "Ġbegan": 7202,
      "Debe": 7203,
      "Ġdormir": 7204,
      "Ġizquier": 7205,
      "God": 7206,
      "imate": 7207,
      "etro": 7208,
      "ĠSen": 7209,
      "Ġcold": 7210,
      "uelo": 7211,
      "uve": 7212,
      "Ġeth": 7213,
      "taciones": 7214,
      "ĠUnido": 7215,
      "Ġrespet": 7216,
      "Ġagentes": 7217,
      "ÃŃtica": 7218,
      "Ġnegocios": 7219,
      "Ġspecies": 7220,
      "Ġescrito": 7221,
      "Ġlevant": 7222,
      "Ġdiscussion": 7223,
      "Claro": 7224,
      "Ġduro": 7225,
      "try": 7226,
      "Ġexcel": 7227,
      "anding": 7228,
      "Ġarte": 7229,
      "Ġprivado": 7230,
      "ashington": 7231,
      "Ġurban": 7232,
      "Ġespecie": 7233,
      "Ġvend": 7234,
      "uly": 7235,
      "iremos": 7236,
      "Ġeffort": 7237,
      "ĠAND": 7238,
      "Ġmercados": 7239,
      "Ġsuel": 7240,
      "Ġbeyond": 7241,
      "ĠMary": 7242,
      "ĠCommun": 7243,
      "Ġcoff": 7244,
      "Ġpele": 7245,
      "ĠdaÃ±o": 7246,
      "Ġdeterminar": 7247,
      "Ġestudiantes": 7248,
      "teras": 7249,
      "Ġrich": 7250,
      "Ġacts": 7251,
      "Ġahead": 7252,
      "ĠniÃ±a": 7253,
      "wood": 7254,
      "Ġsectores": 7255,
      "Ġestadounid": 7256,
      "ĠbaÃ±o": 7257,
      "31": 7258,
      "Ġbos": 7259,
      "Ġgives": 7260,
      "acen": 7261,
      "acÃŃf": 7262,
      "Incl": 7263,
      "Ġ45": 7264,
      "Ġcode": 7265,
      "Ġsujet": 7266,
      "ience": 7267,
      "Ġrend": 7268,
      "ĠProt": 7269,
      "Antes": 7270,
      "Ġaprov": 7271,
      "Ġglad": 7272,
      "Ġsubstant": 7273,
      "pol": 7274,
      "rÃ¡n": 7275,
      "itude": 7276,
      "ĠBueno": 7277,
      "Ġobvious": 7278,
      "Ġcapaz": 7279,
      "Ġsurv": 7280,
      "Ġapproved": 7281,
      "Ġcultura": 7282,
      "Ġnucleares": 7283,
      "NUD": 7284,
      "Ġcontenido": 7285,
      "Espera": 7286,
      "Ġcontempl": 7287,
      "Ġlisto": 7288,
      "Ġhip": 7289,
      "Ġbath": 7290,
      "Ġcoinci": 7291,
      "Ġminuto": 7292,
      "cidas": 7293,
      "Ġexpress": 7294,
      "Ġprovision": 7295,
      "Dr": 7296,
      "Ġsource": 7297,
      "Ġstar": 7298,
      "osovo": 7299,
      "Podemos": 7300,
      "jes": 7301,
      "Ġrepe": 7302,
      "ibl": 7303,
      "Ġshut": 7304,
      "Ġexplain": 7305,
      "Ġunderstanding": 7306,
      "Ġobjectives": 7307,
      "Ġconflictos": 7308,
      "Ġrazones": 7309,
      "Ġeight": 7310,
      "ĠGra": 7311,
      "Ġregions": 7312,
      "Ġhumana": 7313,
      "Ġpresented": 7314,
      "Ġdicha": 7315,
      "Ġfinanciera": 7316,
      "Ġnegoci": 7317,
      "tor": 7318,
      "Ġvital": 7319,
      "aca": 7320,
      "eoples": 7321,
      "Ġboard": 7322,
      "Ġexplos": 7323,
      "Ġmentioned": 7324,
      "Ġsostenible": 7325,
      "bour": 7326,
      "ĠQuÃ©": 7327,
      "Ġlower": 7328,
      "stances": 7329,
      "Ġreco": 7330,
      "Ġmoving": 7331,
      "Ġinstead": 7332,
      "Ġidi": 7333,
      "Ġobligaciones": 7334,
      "LA": 7335,
      "UU": 7336,
      "Ã±ora": 7337,
      "nder": 7338,
      "Ġincom": 7339,
      "Ġequal": 7340,
      "Ġaddressed": 7341,
      "ĠUniversidad": 7342,
      "44": 7343,
      "Ġqual": 7344,
      "olver": 7345,
      "urance": 7346,
      "Ġalquil": 7347,
      "Ġdescon": 7348,
      "Ġtrain": 7349,
      "Ġbrill": 7350,
      "US": 7351,
      "ĠIg": 7352,
      "Ġshouldn": 7353,
      "Ġvoice": 7354,
      "Ġdivid": 7355,
      "mine": 7356,
      "Ġdear": 7357,
      "Ġther": 7358,
      "ĠFather": 7359,
      "ĠChair": 7360,
      "Ġtrabajos": 7361,
      "Ġoffers": 7362,
      "ĠGovern": 7363,
      "Ġcomputer": 7364,
      "LE": 7365,
      "ric": 7366,
      "Ġcarne": 7367,
      "ĠÃºtil": 7368,
      "Sim": 7369,
      "Ġpul": 7370,
      "uded": 7371,
      "Ġresolver": 7372,
      "Ġimagen": 7373,
      "Ġboca": 7374,
      "uted": 7375,
      "ĠSus": 7376,
      "Ġbeat": 7377,
      "Ġresulta": 7378,
      "Ġheav": 7379,
      "Ġimm": 7380,
      "Ġimplic": 7381,
      "ĠpresiÃ³n": 7382,
      "Ġseeing": 7383,
      "ĠNorte": 7384,
      "Ġnecesitan": 7385,
      "Ġmajority": 7386,
      "riage": 7387,
      "Ġcircunst": 7388,
      "35": 7389,
      "arma": 7390,
      "Ġdescrip": 7391,
      "Ġcoleg": 7392,
      "Ġadoption": 7393,
      "Ġiniciativas": 7394,
      "Ã¡ticas": 7395,
      "aso": 7396,
      "quÃŃa": 7397,
      "ĠPara": 7398,
      "estro": 7399,
      "Ġsupply": 7400,
      "Ġactualmente": 7401,
      "1999": 7402,
      "Article": 7403,
      "Ġhicieron": 7404,
      "ICEF": 7405,
      "!\"": 7406,
      ".)": 7407,
      "Ġmouth": 7408,
      "ĠRich": 7409,
      "ĠpequeÃ±os": 7410,
      "Ġpertinentes": 7411,
      "Ġpint": 7412,
      "orar": 7413,
      "Ġrecently": 7414,
      "Ġdivor": 7415,
      "Ġweak": 7416,
      "gry": 7417,
      "Ġmonta": 7418,
      "Ġcompetition": 7419,
      "Ġreforma": 7420,
      "ĠÃ©sta": 7421,
      "Ġmental": 7422,
      "Ġhous": 7423,
      "ĠSum": 7424,
      "terday": 7425,
      "Ġpresid": 7426,
      "Ġ1992": 7427,
      "Ġconocido": 7428,
      "Ġcommunities": 7429,
      "ĠWorking": 7430,
      "atures": 7431,
      "ÃŃg": 7432,
      "ugal": 7433,
      "Ġ36": 7434,
      "ounds": 7435,
      "Ġdesigned": 7436,
      "Ġdialogue": 7437,
      "unk": 7438,
      "ĠquizÃ¡": 7439,
      "Ġrefuge": 7440,
      "ĠParty": 7441,
      "Ġaware": 7442,
      "Ġconcerns": 7443,
      "ĠcampaÃ±a": 7444,
      "Ġpiece": 7445,
      "Ġhero": 7446,
      "ĠHola": 7447,
      "agu": 7448,
      "Ġanybody": 7449,
      "Algunos": 7450,
      "Ġenfoque": 7451,
      "quina": 7452,
      "ĠMichael": 7453,
      "ATION": 7454,
      "ĠaprobaciÃ³n": 7455,
      "Ġdisease": 7456,
      "ĠPalestinian": 7457,
      "34": 7458,
      "Ġvio": 7459,
      "Ġrenov": 7460,
      "ĠOb": 7461,
      "ĠopciÃ³n": 7462,
      "Ġresponsable": 7463,
      "ĠelecciÃ³n": 7464,
      "Ġhonest": 7465,
      "Ġamplia": 7466,
      "Ġindependent": 7467,
      "amas": 7468,
      "Ġarro": 7469,
      "Ġcliente": 7470,
      "ĠConstitu": 7471,
      "Ġcrit": 7472,
      "Ġuniversal": 7473,
      "Ġiniciativa": 7474,
      "Ġpursu": 7475,
      "Ġcomprehensive": 7476,
      "Fu": 7477,
      "onde": 7478,
      "une": 7479,
      "ĠMill": 7480,
      "ĠKosovo": 7481,
      "Ġsteps": 7482,
      "ĠtÃ©rminos": 7483,
      "visiÃ³n": 7484,
      "Ġtim": 7485,
      "ĠPeter": 7486,
      "ĠChin": 7487,
      "Ġfacilitar": 7488,
      "Ġmaterials": 7489,
      "Ġasegurar": 7490,
      "Ġlikely": 7491,
      "ĠPhil": 7492,
      "Ġlaid": 7493,
      "Ġhaz": 7494,
      "Ġpromise": 7495,
      "ĠinversiÃ³n": 7496,
      "Fran": 7497,
      "empl": 7498,
      "ianos": 7499,
      "Ġcontribuy": 7500,
      "Ġadded": 7501,
      "Ġbenefits": 7502,
      "Ġideal": 7503,
      "date": 7504,
      "Ġmid": 7505,
      "jeros": 7506,
      "Ġbuilt": 7507,
      "Ġrestrict": 7508,
      "Ġterreno": 7509,
      "PR": 7510,
      "Ver": 7511,
      "lad": 7512,
      "ĠSon": 7513,
      "Ġcreation": 7514,
      "Ġfui": 7515,
      "www": 7516,
      "Ġrequisitos": 7517,
      "mb": 7518,
      "incu": 7519,
      "Ġthrow": 7520,
      "Ġfly": 7521,
      "Ġvosotros": 7522,
      "ĠEv": 7523,
      "Ġvalues": 7524,
      "ilizaciÃ³n": 7525,
      "Ġade": 7526,
      "Ġsize": 7527,
      "itive": 7528,
      "QuizÃ¡s": 7529,
      "ucr": 7530,
      "Ġagreements": 7531,
      "],": 7532,
      "ming": 7533,
      "yos": 7534,
      "Âª": 7535,
      "Ġfulf": 7536,
      "Ġalthough": 7537,
      "erop": 7538,
      "astre": 7539,
      "198": 7540,
      "Ġpeso": 7541,
      "Ġarchivo": 7542,
      "Ġvoluntad": 7543,
      "ĠadopciÃ³n": 7544,
      ".'": 7545,
      "eta": 7546,
      "Ġmaxim": 7547,
      "Ġgubernamentales": 7548,
      "Ġtraditional": 7549,
      "put": 7550,
      "ĠestÃºp": 7551,
      "Ġexterior": 7552,
      "Ġpresence": 7553,
      "Ġ37": 7554,
      "Ġaffected": 7555,
      "Ġmatrimonio": 7556,
      "Ġestablece": 7557,
      "Ġstarting": 7558,
      "ĠvotaciÃ³n": 7559,
      "Ġseleccion": 7560,
      "CI": 7561,
      "uk": 7562,
      "Ġarmed": 7563,
      "Ġregistro": 7564,
      "ĠdejÃ³": 7565,
      "Ġcomprar": 7566,
      "Ġargument": 7567,
      "Ġentitled": 7568,
      "Vas": 7569,
      "ties": 7570,
      "Ġnombr": 7571,
      "Ġloved": 7572,
      "Ġtengan": 7573,
      "Ġcabe": 7574,
      "aily": 7575,
      "ĠespaÃ±": 7576,
      "Ġincluye": 7577,
      "ax": 7578,
      "cement": 7579,
      "Ġtum": 7580,
      "ĠCE": 7581,
      "ĠOper": 7582,
      "Ġjoin": 7583,
      "Ġreached": 7584,
      "ĠcafÃ©": 7585,
      "'.": 7586,
      "AÃºn": 7587,
      "vin": 7588,
      "Ġalc": 7589,
      "ĠEN": 7590,
      "Ġchem": 7591,
      "ĠagrÃŃcol": 7592,
      "Ġdifference": 7593,
      "Ġcertainly": 7594,
      "Ġvincul": 7595,
      "Ġdistintos": 7596,
      "37": 7597,
      "Ġtill": 7598,
      "Ġcic": 7599,
      "ĠharÃŃa": 7600,
      "cura": 7601,
      "Ġnecesarias": 7602,
      "gency": 7603,
      "Ãºsqu": 7604,
      "ĠSanta": 7605,
      "Ġladies": 7606,
      "Ġcy": 7607,
      "Ġdecre": 7608,
      "atÃ©g": 7609,
      "Ġannex": 7610,
      "Ġencan": 7611,
      "abo": 7612,
      "Ġplanet": 7613,
      "ĠllegÃ³": 7614,
      "Ġasesinato": 7615,
      "Ġinmediat": 7616,
      "Sorry": 7617,
      "eh": 7618,
      "Ġsam": 7619,
      "Ġmiddle": 7620,
      "Ġosc": 7621,
      "ĠJapÃ³n": 7622,
      "Ġwelcom": 7623,
      "Ġtemp": 7624,
      "Ġmap": 7625,
      "Ġseas": 7626,
      "ĠJud": 7627,
      "Ġdarle": 7628,
      "ĠpequeÃ±as": 7629,
      "Ġaprender": 7630,
      "Ġabsolute": 7631,
      "ĠmÃ¡ximo": 7632,
      "Ġexercise": 7633,
      "39": 7634,
      "Right": 7635,
      "iable": 7636,
      "ĠÃ³": 7637,
      "onel": 7638,
      "itaciÃ³n": 7639,
      "Ġfiel": 7640,
      "Ġcub": 7641,
      "ĠOK": 7642,
      "Ġfunny": 7643,
      "Ġdefensa": 7644,
      "Ġfuncionamiento": 7645,
      "Ġalcohol": 7646,
      "Ġdosis": 7647,
      "Ġsettle": 7648,
      "Ġabogado": 7649,
      "36": 7650,
      "OW": 7651,
      "eral": 7652,
      "Ġeh": 7653,
      "Ġloss": 7654,
      "Ġacad": 7655,
      "ĠdeberÃŃamos": 7656,
      "Ġmateriales": 7657,
      "Ġreclam": 7658,
      "indo": 7659,
      "ĠGar": 7660,
      "iego": 7661,
      "Ġinvestigation": 7662,
      "ĠcondiciÃ³n": 7663,
      "Ġassessment": 7664,
      "nic": 7665,
      "Ġenga": 7666,
      "Ġwhom": 7667,
      "ĠestÃ©n": 7668,
      "ĠDid": 7669,
      "Ġgobern": 7670,
      "ĠComis": 7671,
      "Ġfuente": 7672,
      "Ġpurposes": 7673,
      "Ġhacemos": 7674,
      "ĠpidiÃ³": 7675,
      "based": 7676,
      "face": 7677,
      "Ġisland": 7678,
      "Ġvisita": 7679,
      "EstÃ¡n": 7680,
      "Ġcentury": 7681,
      "Ġcaused": 7682,
      "Ġcircumstances": 7683,
      "].": 7684,
      "Ġfat": 7685,
      "Ġenh": 7686,
      "Ġordin": 7687,
      "Ġcarga": 7688,
      "Ġengine": 7689,
      "Ġcarrera": 7690,
      "Ġhogar": 7691,
      "Ġstraight": 7692,
      "cÃ³": 7693,
      "umin": 7694,
      "Ġchurch": 7695,
      "Ġconstruct": 7696,
      "ĠConven": 7697,
      "Ġanyway": 7698,
      "Ġafuera": 7699,
      "ĠAng": 7700,
      "Ġmeaning": 7701,
      "ancos": 7702,
      "estern": 7703,
      "Ġvidas": 7704,
      "irÃ¡n": 7705,
      "ils": 7706,
      "iende": 7707,
      "Ġpudo": 7708,
      "Ġentend": 7709,
      "Ġreality": 7710,
      "Ġganar": 7711,
      "ĠColombia": 7712,
      "bers": 7713,
      "arily": 7714,
      "rey": 7715,
      "Ġsiente": 7716,
      "Ġsigned": 7717,
      "Ġanimals": 7718,
      "Ġdiscrimination": 7719,
      "Ġaverage": 7720,
      "Ġconcepto": 7721,
      "Ġacost": 7722,
      "Ġamended": 7723,
      "Ġpresentado": 7724,
      "Ġfault": 7725,
      "Ġfavour": 7726,
      "ini": 7727,
      "Ġsurr": 7728,
      "ÃŃble": 7729,
      "Ġ300": 7730,
      "Ġ48": 7731,
      "Ġpropios": 7732,
      "Although": 7733,
      "47": 7734,
      "BI": 7735,
      "Ġrey": 7736,
      "abas": 7737,
      "Ġacog": 7738,
      "Ġsolici": 7739,
      "enciales": 7740,
      "Ġreserva": 7741,
      "Ġreconocimiento": 7742,
      "Ġtama": 7743,
      "ĠRap": 7744,
      "ĠCome": 7745,
      "Ġcoches": 7746,
      "Ġclave": 7747,
      "ĠChurch": 7748,
      "Ġ1993": 7749,
      "Ġdecirle": 7750,
      "ĠMinistro": 7751,
      "Ġbeneficios": 7752,
      "Ġemplo": 7753,
      "Ġdigas": 7754,
      "Ġobjective": 7755,
      "Ġescuchar": 7756,
      "ĠEUROP": 7757,
      "Ġconsiguiente": 7758,
      "atar": 7759,
      "ĠCult": 7760,
      "Ġputa": 7761,
      "Ġcancer": 7762,
      "cope": 7763,
      "Ġclimate": 7764,
      "Euro": 7765,
      "aries": 7766,
      "Ġguest": 7767,
      "irÃŃa": 7768,
      "Ġarbit": 7769,
      "Ġterritory": 7770,
      "genes": 7771,
      "38": 7772,
      "right": 7773,
      "Ġadministration": 7774,
      "Ġpiensa": 7775,
      "Ġinstruments": 7776,
      "Ġrelacionadas": 7777,
      "Ġquisiera": 7778,
      "Ġcomport": 7779,
      "Ġmeta": 7780,
      "Ġfinales": 7781,
      "Ġrelativo": 7782,
      "ĠChile": 7783,
      "Ġsiguen": 7784,
      "ĠFrancis": 7785,
      "Ġdrugs": 7786,
      "iÃ©nd": 7787,
      "enge": 7788,
      "oms": 7789,
      "amor": 7790,
      "iforn": 7791,
      "Ġfotos": 7792,
      "ĠIV": 7793,
      "Ġsuelo": 7794,
      "ĠAction": 7795,
      "Ġdesaf": 7796,
      "agr": 7797,
      "Ġperro": 7798,
      "Ġexisten": 7799,
      "bserv": 7800,
      "Ġinitial": 7801,
      "Ke": 7802,
      "Med": 7803,
      "cut": 7804,
      "Ġ+": 7805,
      "ĠMos": 7806,
      "Ġacord": 7807,
      "Ġcompro": 7808,
      "Ġconstruction": 7809,
      "Ġnecesitas": 7810,
      "Ġmenores": 7811,
      "Ġexaminar": 7812,
      "ĠejÃ©rcito": 7813,
      "Ġesperanza": 7814,
      "Ġissued": 7815,
      "Ġpractices": 7816,
      "Ġslow": 7817,
      "Ġvictim": 7818,
      "ĠPak": 7819,
      "Ġtram": 7820,
      "Ġapre": 7821,
      "Ġourselves": 7822,
      "ĠAdministr": 7823,
      "Ġdiplom": 7824,
      "enar": 7825,
      "eren": 7826,
      "Ġcommercial": 7827,
      "Ġequival": 7828,
      "Ġconvirt": 7829,
      "Add": 7830,
      "ĠÃ¡rbol": 7831,
      "yd": 7832,
      "Ġliqu": 7833,
      "usal": 7834,
      "ĠEste": 7835,
      "ĠAustralia": 7836,
      "Ġembara": 7837,
      "Ġconozco": 7838,
      "ĠCongo": 7839,
      "Ġsalvo": 7840,
      "Ġvalid": 7841,
      "Ġconsumo": 7842,
      "Ġfundamentales": 7843,
      "adrid": 7844,
      "Ġoccur": 7845,
      "ÃŃgenas": 7846,
      "Ġaprovech": 7847,
      "pens": 7848,
      "ĠIT": 7849,
      "uding": 7850,
      "ĠprevenciÃ³n": 7851,
      "ĠOc": 7852,
      "Ġestablishing": 7853,
      "Ġterrorism": 7854,
      "ĠPolic": 7855,
      "________": 7856,
      "itect": 7857,
      "Ġing": 7858,
      "Ġmarriage": 7859,
      "Ġgrowing": 7860,
      "Ġpone": 7861,
      "undo": 7862,
      "ĠWashington": 7863,
      "igned": 7864,
      "Ġparticipantes": 7865,
      "Ġencuentran": 7866,
      "hesiÃ³n": 7867,
      "Ġdoubt": 7868,
      "ÃŃes": 7869,
      "Ġreduction": 7870,
      "ĠMag": 7871,
      "uma": 7872,
      "Ġvisits": 7873,
      "Ġcomplex": 7874,
      "enaza": 7875,
      "Ġpudiera": 7876,
      "Ġplenamente": 7877,
      "Many": 7878,
      "nas": 7879,
      "Ġacep": 7880,
      "Ġenf": 7881,
      "Ġparecer": 7882,
      "ĠSun": 7883,
      "Ġrent": 7884,
      "Ġreglas": 7885,
      "action": 7886,
      "Ġexpert": 7887,
      "IDA": 7888,
      "ĠdiseÃ±": 7889,
      "Ġescala": 7890,
      "Ġmecanismos": 7891,
      "vas": 7892,
      "quate": 7893,
      "ĠquizÃ¡s": 7894,
      "Ġesencial": 7895,
      "ĠDar": 7896,
      "ĠBrazil": 7897,
      "well": 7898,
      "Ġestructura": 7899,
      "Ġchallenges": 7900,
      "Um": 7901,
      "uido": 7902,
      "Ġaj": 7903,
      "Ġwed": 7904,
      "ĠChild": 7905,
      "Ġequil": 7906,
      "ĠdirÃ©": 7907,
      "Ġagricultural": 7908,
      "isms": 7909,
      "Ġocho": 7910,
      "Ġtoler": 7911,
      "econ": 7912,
      "ĠLeg": 7913,
      "venir": 7914,
      "Ġnumeros": 7915,
      "Ġefectu": 7916,
      "Ġrecibido": 7917,
      "Ġconference": 7918,
      "ĠHotel": 7919,
      "Ġguarantee": 7920,
      "%.": 7921,
      "Ġquit": 7922,
      "Ġrefor": 7923,
      "ĠSta": 7924,
      "ĠGracias": 7925,
      "Ġperhaps": 7926,
      "Ġmayores": 7927,
      "inda": 7928,
      "Ġpromet": 7929,
      "Ġspent": 7930,
      "Ġnegociaciones": 7931,
      "ĠJunta": 7932,
      "Ġdangerous": 7933,
      "py": 7934,
      "Ġwal": 7935,
      "Ġoportunidades": 7936,
      "Ġrelacionados": 7937,
      "enry": 7938,
      "ĠbÃºsqu": 7939,
      "Ġfort": 7940,
      "Ġrates": 7941,
      "Ġadvert": 7942,
      "Ġoppos": 7943,
      "ĠintenciÃ³n": 7944,
      "Ġempez": 7945,
      "ĠFederal": 7946,
      "ĠdesempeÃ±": 7947,
      "CO": 7948,
      "Ġconduc": 7949,
      "ĠBien": 7950,
      "Ġshown": 7951,
      "Ġinspect": 7952,
      "Ġefici": 7953,
      "Ġcentr": 7954,
      "Ġblanco": 7955,
      "Ġfollowed": 7956,
      "TA": 7957,
      "inta": 7958,
      "Ġunidad": 7959,
      "ologÃŃas": 7960,
      "Ġelements": 7961,
      "Podr": 7962,
      "Ġaccident": 7963,
      "Luego": 7964,
      "OK": 7965,
      "Ġbio": 7966,
      "Ġgal": 7967,
      "Ġgrado": 7968,
      "Ġseguimiento": 7969,
      "Ġadministrative": 7970,
      "Ġattract": 7971,
      "Ġdejado": 7972,
      "ĠAmb": 7973,
      "Ġcontribution": 7974,
      "ĠEstoy": 7975,
      "ifornia": 7976,
      "rices": 7977,
      "utas": 7978,
      "elle": 7979,
      "ĠHa": 7980,
      "Ġcontamin": 7981,
      "Ġregister": 7982,
      "works": 7983,
      "TR": 7984,
      "Ġwind": 7985,
      "Ġdelante": 7986,
      "ĠprisiÃ³n": 7987,
      "Ġchap": 7988,
      "Ġadoles": 7989,
      "dita": 7990,
      "Ġespero": 7991,
      "Ġmissing": 7992,
      "Ġcoffee": 7993,
      "omo": 7994,
      "Ġrele": 7995,
      "abes": 7996,
      "Ġpregn": 7997,
      "Ġamenaza": 7998,
      "Ã¡ncer": 7999,
      "Ġposterior": 8000,
      "Ġformal": 8001,
      "Ġcontrato": 8002,
      "Ġconstante": 8003,
      "Ġreligious": 8004,
      "Ġindividuals": 8005,
      "Ġanunci": 8006,
      "Ġrace": 8007,
      "icanos": 8008,
      "Ġataque": 8009,
      ",âĢĿ": 8010,
      "98": 8011,
      "enos": 8012,
      "tegr": 8013,
      "Ġweight": 8014,
      "ĠtrÃ¡fico": 8015,
      "Which": 8016,
      "Ġsala": 8017,
      "Ġterminado": 8018,
      "ĠversiÃ³n": 8019,
      "Ġstructure": 8020,
      "Ġprocesos": 8021,
      "Ġpush": 8022,
      "Ġpermis": 8023,
      "otas": 8024,
      "Ġworse": 8025,
      "Ġfeet": 8026,
      "Ġreconoc": 8027,
      "Ġdenomin": 8028,
      "ACIÃĵN": 8029,
      "Ġdisponibles": 8030,
      "ĠmontÃ³n": 8031,
      "Ġcaja": 8032,
      "asure": 8033,
      "Ġmons": 8034,
      "isos": 8035,
      "omet": 8036,
      "Ġenfor": 8037,
      "usta": 8038,
      "ĠOkay": 8039,
      "Ġprimeros": 8040,
      "ĠdeberÃ¡n": 8041,
      "Ġobligations": 8042,
      "Ġclaramente": 8043,
      "Ġcriterios": 8044,
      "gypt": 8045,
      "ĠmÃ©todos": 8046,
      "Ġapplied": 8047,
      "Ġsolidar": 8048,
      "Ġpil": 8049,
      "Ġcita": 8050,
      "Ġnar": 8051,
      "Ġforgot": 8052,
      "Ġpobres": 8053,
      "lace": 8054,
      "Ġcomerciales": 8055,
      "Ġcorrecto": 8056,
      "ĠvÃŃctima": 8057,
      "Ġinmediatamente": 8058,
      "Ob": 8059,
      "Ġinicial": 8060,
      "ĠUd": 8061,
      "ĠParis": 8062,
      "ĠRussia": 8063,
      "Ġdesapare": 8064,
      "into": 8065,
      "Ġearl": 8066,
      "ĠCa": 8067,
      "Ġoverall": 8068,
      "ĠEsp": 8069,
      "Ġmarkets": 8070,
      "Ġalquiler": 8071,
      "time": 8072,
      "Ġrecuerdo": 8073,
      "Ġinsist": 8074,
      "ĠBrit": 8075,
      "Ġbrain": 8076,
      "ĠÃīl": 8077,
      "Ġ55": 8078,
      "Ġincome": 8079,
      "Ġvuelto": 8080,
      "Ġaus": 8081,
      "Ġresc": 8082,
      "ĠoperaciÃ³n": 8083,
      "ĠcapacitaciÃ³n": 8084,
      "Perd": 8085,
      "ĠLatin": 8086,
      "Ġplaneta": 8087,
      "Further": 8088,
      "Ġult": 8089,
      "Ġdepos": 8090,
      "Ġsalida": 8091,
      "Ġderiv": 8092,
      "Ġgranted": 8093,
      "Ġdiscover": 8094,
      "iture": 8095,
      "Ġvemos": 8096,
      "Ġprotocol": 8097,
      "Ġsug": 8098,
      "lectual": 8099,
      "Ġevening": 8100,
      "Ġresponder": 8101,
      "ĠmÃŃnimo": 8102,
      "Ġanual": 8103,
      "Ġremin": 8104,
      "Ġnobody": 8105,
      "ĠUna": 8106,
      "Ġtuve": 8107,
      "Ġcentre": 8108,
      "Ġorganized": 8109,
      "Ġplayed": 8110,
      "Ġdrop": 8111,
      "ĠtÃŃ": 8112,
      "arÃ¡s": 8113,
      "itis": 8114,
      "Ġmues": 8115,
      "Ġcompleta": 8116,
      "Ġconstituye": 8117,
      "Ġachieved": 8118,
      "Ġlabour": 8119,
      "building": 8120,
      "Ġscared": 8121,
      "fa": 8122,
      "ajas": 8123,
      "Ġproduced": 8124,
      "Ġcualquiera": 8125,
      "trol": 8126,
      "Ġbreath": 8127,
      "Ġdescans": 8128,
      "Ġsecreto": 8129,
      "ĠSing": 8130,
      "ĠMac": 8131,
      "Ġring": 8132,
      "Ġcenter": 8133,
      "cale": 8134,
      "ĠSecretarÃŃa": 8135,
      "Ġelections": 8136,
      "Ġiglesia": 8137,
      "Ġmolest": 8138,
      "Ġcircunstancias": 8139,
      "Ġalcance": 8140,
      "32": 8141,
      "Ano": 8142,
      "bum": 8143,
      "itions": 8144,
      "ĠSm": 8145,
      "Ġdoble": 8146,
      "ĠNow": 8147,
      "Ġpreserv": 8148,
      "Ġtransl": 8149,
      "Ġreporting": 8150,
      "Ġfrequ": 8151,
      "IDS": 8152,
      "Ġasesino": 8153,
      "Ġwebsite": 8154,
      "asta": 8155,
      "aled": 8156,
      "Ġhechos": 8157,
      "ĠvisiÃ³n": 8158,
      "Ġventa": 8159,
      "urgo": 8160,
      "emn": 8161,
      "ulado": 8162,
      "ĠDu": 8163,
      "Ġdesplaz": 8164,
      "Ġaspects": 8165,
      "ĠProtocolo": 8166,
      "Ġquickly": 8167,
      "Pien": 8168,
      "dis": 8169,
      "ĠcÃ¡r": 8170,
      "Ġye": 8171,
      "Ġburn": 8172,
      "Ġmez": 8173,
      "ĠMu": 8174,
      "Ġagente": 8175,
      "Ġderecha": 8176,
      "Ġcompromet": 8177,
      "ĠcrÃ©dito": 8178,
      "Â«": 8179,
      "ĠBal": 8180,
      "Ġ32": 8181,
      "Ġposibil": 8182,
      "Ġsuppl": 8183,
      "ĠestratÃ©g": 8184,
      "ĠJoe": 8185,
      "Ġmethods": 8186,
      "Ġoficiales": 8187,
      "rol": 8188,
      "empos": 8189,
      "Ġleer": 8190,
      "Ġamo": 8191,
      "ĠVamos": 8192,
      "Ġprimary": 8193,
      "Ġvolun": 8194,
      "100": 8195,
      "NÃºmero": 8196,
      "ĠoÃŃr": 8197,
      "Ġasust": 8198,
      "Ġpaint": 8199,
      "Ġspend": 8200,
      "Ġspread": 8201,
      "ĠdeberÃŃas": 8202,
      "III": 8203,
      "Ġrecommended": 8204,
      "icarag": 8205,
      "ĠtelevisiÃ³n": 8206,
      "Ġusuarios": 8207,
      "Dos": 8208,
      "SP": 8209,
      "onic": 8210,
      "Ġlif": 8211,
      "Ġhoney": 8212,
      "ĠMadrid": 8213,
      "Ġentry": 8214,
      "ground": 8215,
      "ĠhistÃ³r": 8216,
      "ificaciones": 8217,
      "Ġchoose": 8218,
      "Ag": 8219,
      "die": 8220,
      "Ġwrote": 8221,
      "emin": 8222,
      "ĠJames": 8223,
      "Ġadquir": 8224,
      "Ġpartner": 8225,
      "ologies": 8226,
      "ĠSecretariat": 8227,
      "ĠdiseÃ±o": 8228,
      "Ġcif": 8229,
      "Ġeta": 8230,
      "Ġnames": 8231,
      "Ġserve": 8232,
      "ĠVol": 8233,
      "Ġtempran": 8234,
      "New": 8235,
      "Ġpiel": 8236,
      "Ġquant": 8237,
      "ĠCosta": 8238,
      "Ġchair": 8239,
      "Ġcook": 8240,
      "Ġsuspect": 8241,
      "ously": 8242,
      "Ġnecesarios": 8243,
      "Ġfacilities": 8244,
      "Ġemergency": 8245,
      "ĠItaly": 8246,
      "Ġpartnership": 8247,
      "%)": 8248,
      "dra": 8249,
      "enio": 8250,
      "astruct": 8251,
      "Ġparal": 8252,
      "Ġorgu": 8253,
      "Ġamaz": 8254,
      "Ġbrief": 8255,
      "Ġfollows": 8256,
      "Ġhappening": 8257,
      "Ġtypes": 8258,
      "Ġholding": 8259,
      "ĠsueÃ±o": 8260,
      "Nada": 8261,
      "Ġunless": 8262,
      "Ġalleg": 8263,
      "Ġcoher": 8264,
      "ĠtenÃŃan": 8265,
      "atoria": 8266,
      "Ġschools": 8267,
      "DE": 8268,
      "Ġsitting": 8269,
      "Ġwid": 8270,
      "Ġwine": 8271,
      "ĠAgr": 8272,
      "Ġnotes": 8273,
      "Ġayer": 8274,
      "Ġsectors": 8275,
      "Ġcumple": 8276,
      "celona": 8277,
      "Ġfunciona": 8278,
      "Ġskin": 8279,
      "Ġpsych": 8280,
      "Ġemploye": 8281,
      "jan": 8282,
      "ids": 8283,
      "Ġrum": 8284,
      "ĠRos": 8285,
      "Ġcuya": 8286,
      "ieza": 8287,
      "ĠÃ©st": 8288,
      "Ġfuentes": 8289,
      "Ġbuenos": 8290,
      "ĠintegraciÃ³n": 8291,
      "Ġdiscut": 8292,
      "Ġtalked": 8293,
      "Ġaccidente": 8294,
      "Ġdetails": 8295,
      "Nosotros": 8296,
      "Ġtall": 8297,
      "Ġrepar": 8298,
      "udas": 8299,
      "ĠArt": 8300,
      "Ġmetros": 8301,
      "endrÃ¡": 8302,
      "Ġdiversos": 8303,
      "Ġriesgos": 8304,
      "Ġyesterday": 8305,
      "Ġdamn": 8306,
      "Ġconciencia": 8307,
      "ĠLondon": 8308,
      "ĠArgentina": 8309,
      "46": 8310,
      "Ġglo": 8311,
      "ĠLou": 8312,
      "Ġarmy": 8313,
      "Ġamiga": 8314,
      "Ġinformed": 8315,
      "ĠProf": 8316,
      "TodavÃŃa": 8317,
      "ĠCanad": 8318,
      "Ġdiversas": 8319,
      "Ġstrengthen": 8320,
      "atas": 8321,
      "Ġasum": 8322,
      "Ġjod": 8323,
      "Ġwriting": 8324,
      "ĠCristo": 8325,
      "Ġcriteria": 8326,
      "Ġmilitares": 8327,
      "People": 8328,
      "Ġsad": 8329,
      "Ġbul": 8330,
      "Ġquiet": 8331,
      "load": 8332,
      "Ġability": 8333,
      "Ġdebt": 8334,
      "Ġmoved": 8335,
      "Ġpresenta": 8336,
      "Ġpossibility": 8337,
      "Ġapartment": 8338,
      "Ġglass": 8339,
      "Ġcoordination": 8340,
      "ĠJusticia": 8341,
      "Ġdemocracia": 8342,
      "99": 8343,
      "asi": 8344,
      "Ġexhib": 8345,
      "Ġmarch": 8346,
      "ĠpropÃ³sito": 8347,
      "Ġvale": 8348,
      "ĠMedio": 8349,
      "Ġinitiative": 8350,
      "Could": 8351,
      "hi": 8352,
      "zan": 8353,
      "Ġtrop": 8354,
      "Ġnav": 8355,
      "Ġbear": 8356,
      "ĠDoc": 8357,
      "Ġprensa": 8358,
      "Ġdiss": 8359,
      "Ġcash": 8360,
      "Ġocurre": 8361,
      "Ġcollabor": 8362,
      "Pl": 8363,
      "Ġball": 8364,
      "Ġcommittee": 8365,
      "ĠBras": 8366,
      "Ġstated": 8367,
      "ĠÃ©p": 8368,
      "Ġcoloc": 8369,
      "CuÃ¡nto": 8370,
      "ĠHealth": 8371,
      "Ġsuperfici": 8372,
      "Ġfunding": 8373,
      "Ġsuccessful": 8374,
      "ĠbÃºsqueda": 8375,
      "Ġpeoples": 8376,
      "itter": 8377,
      "ĠquÃŃm": 8378,
      "Ã©m": 8379,
      "ĠGal": 8380,
      "Ġkiss": 8381,
      "Ġadm": 8382,
      "Ġfinish": 8383,
      "ĠCharlie": 8384,
      "Ġ1991": 8385,
      "ĠPark": 8386,
      "Ġdiga": 8387,
      "ĠCalifornia": 8388,
      "Ġdisappe": 8389,
      "Ġadolesc": 8390,
      "ĠRa": 8391,
      "ĠJuan": 8392,
      "grÃ¡f": 8393,
      "Ġimped": 8394,
      "Ġredes": 8395,
      "Ġbitch": 8396,
      "Ġesfuerzo": 8397,
      "ĠItalia": 8398,
      "Ġfabric": 8399,
      "ĠmÃŃa": 8400,
      "icks": 8401,
      "Ġalma": 8402,
      "Ġposibles": 8403,
      "Ġpatient": 8404,
      "ĠpÃºblicos": 8405,
      "Ġopportunities": 8406,
      "ibilities": 8407,
      "Ġnegotiations": 8408,
      "gip": 8409,
      "tom": 8410,
      "Ġhu": 8411,
      "Ġwarm": 8412,
      "Ġsocio": 8413,
      "Ġadicionales": 8414,
      "astic": 8415,
      "Ġconocimientos": 8416,
      "Ġmandate": 8417,
      "Ġreading": 8418,
      "Ġassociated": 8419,
      "Ġdemocracy": 8420,
      "Ġboss": 8421,
      "Ġcontar": 8422,
      "Ġthinks": 8423,
      "Ġcolum": 8424,
      "Ġresolutions": 8425,
      "Ġtarea": 8426,
      "ĠTerr": 8427,
      "Ġinitiatives": 8428,
      "Ġpocos": 8429,
      "Ġdiscipl": 8430,
      "eropuerto": 8431,
      "ĠÃ¡n": 8432,
      "Ġscience": 8433,
      "Ġciv": 8434,
      "Ġexpend": 8435,
      "ĠFl": 8436,
      "Ġpatr": 8437,
      "Ġmulti": 8438,
      "Ġclosed": 8439,
      "ĠDeclaraciÃ³n": 8440,
      "Ġdance": 8441,
      "Ġdaily": 8442,
      "Ã©simo": 8443,
      "Ġsomewhere": 8444,
      "Ġaun": 8445,
      "ĠcÃ¡ncer": 8446,
      "Ġfals": 8447,
      "ugos": 8448,
      "ificada": 8449,
      "Ġletra": 8450,
      "Ġlocation": 8451,
      "Ġbehav": 8452,
      "Art": 8453,
      "ĠJustice": 8454,
      "Ġversion": 8455,
      "ĠPenal": 8456,
      "Ġscientific": 8457,
      "Ter": 8458,
      "cimientos": 8459,
      "itales": 8460,
      "Ġvive": 8461,
      "ĠScot": 8462,
      "ientas": 8463,
      "Ġacto": 8464,
      "Ġacced": 8465,
      "cular": 8466,
      "Ġintended": 8467,
      "Ġciviles": 8468,
      "Incluso": 8469,
      "ĠtamaÃ±o": 8470,
      "IP": 8471,
      "Ġlig": 8472,
      "Ġbaja": 8473,
      "Ġlav": 8474,
      "ĠMike": 8475,
      "keeping": 8476,
      "ĠTw": 8477,
      "Ġoccas": 8478,
      "Ġverdadero": 8479,
      "Ġincluir": 8480,
      "Ġwindow": 8481,
      "Ġprevisto": 8482,
      "atural": 8483,
      "ifying": 8484,
      "Ġnotice": 8485,
      "Ġwilling": 8486,
      "Ġnecesaria": 8487,
      "Ġsupported": 8488,
      "Ġpreocupes": 8489,
      "Ġcocina": 8490,
      "Ġvillage": 8491,
      "wing": 8492,
      "xy": 8493,
      "Ġdeport": 8494,
      "llig": 8495,
      "Ġjournal": 8496,
      "ĠHay": 8497,
      "Ġemot": 8498,
      "Ġsecund": 8499,
      "Ġbelie": 8500,
      "Ġexpla": 8501,
      "Ġincluidos": 8502,
      "Ġcuadro": 8503,
      "zada": 8504,
      "Ã¡b": 8505,
      "ĠDen": 8506,
      "Ġdebajo": 8507,
      "Ġlibros": 8508,
      "Ġspeaking": 8509,
      "ĠllevÃ³": 8510,
      "Ġincludes": 8511,
      "Ġinfraestruct": 8512,
      "ĠMission": 8513,
      "gamos": 8514,
      "Ġconoce": 8515,
      "Ġborder": 8516,
      "ĠVoices": 8517,
      "Number": 8518,
      "cking": 8519,
      "Ġwide": 8520,
      "Ġanteriores": 8521,
      "Ġreject": 8522,
      "Ġconsiderable": 8523,
      "jeta": 8524,
      "Ġmoral": 8525,
      "umping": 8526,
      "nia": 8527,
      "inea": 8528,
      "ĠMat": 8529,
      "ĠPop": 8530,
      "Ġuseful": 8531,
      "Ġexistencia": 8532,
      "Ġimplemented": 8533,
      "Ġequipos": 8534,
      "ĠDeclaration": 8535,
      "Ġfle": 8536,
      "Ġelig": 8537,
      "ĠPeace": 8538,
      "Ġgoal": 8539,
      "Ġsuspend": 8540,
      "ĠIslam": 8541,
      "Ġcontribute": 8542,
      "Ġadvice": 8543,
      "Ġinferior": 8544,
      "Ġpies": 8545,
      "Ġrit": 8546,
      "antil": 8547,
      "Ġtren": 8548,
      "Ġmanner": 8549,
      "Ġhandle": 8550,
      "Ġprofesionales": 8551,
      "Ġllega": 8552,
      "Ġhorrible": 8553,
      "Dec": 8554,
      "ulations": 8555,
      "ĠDay": 8556,
      "Ġcubr": 8557,
      "Ġentidades": 8558,
      "Quer": 8559,
      "ĠincreÃŃble": 8560,
      "Ġcaught": 8561,
      "Ġterminar": 8562,
      "Ġcorrespondientes": 8563,
      "Ġnovia": 8564,
      "ĠPortugal": 8565,
      "areness": 8566,
      "Such": 8567,
      "Va": 8568,
      "Ġib": 8569,
      "Ġsales": 8570,
      "amar": 8571,
      "ĠBos": 8572,
      "ÃŃnt": 8573,
      "Ġviews": 8574,
      "Ġrapid": 8575,
      "Ġveloci": 8576,
      "ĠChinese": 8577,
      "Ġwall": 8578,
      "Ġweren": 8579,
      "ector": 8580,
      "apÃ¡": 8581,
      "gues": 8582,
      "Ġdemonios": 8583,
      "Ġgreen": 8584,
      "iance": 8585,
      "wide": 8586,
      "Ġpreced": 8587,
      "ĠOne": 8588,
      "Ġ38": 8589,
      "Ġgraves": 8590,
      "cidental": 8591,
      "ĠGrand": 8592,
      "ĠpreparaciÃ³n": 8593,
      "Ġcompetent": 8594,
      "Ġobservaciones": 8595,
      "Ġleading": 8596,
      "Prob": 8597,
      "Ġpienso": 8598,
      "ĠdistribuciÃ³n": 8599,
      "Ġencanta": 8600,
      "ĠWhen": 8601,
      "Ġpuso": 8602,
      "unta": 8603,
      "ĠWith": 8604,
      "ĠUNICEF": 8605,
      "Ġdeclaraciones": 8606,
      "Ġchallenge": 8607,
      "bia": 8608,
      "orre": 8609,
      "ecciones": 8610,
      "ĠCivil": 8611,
      "ulate": 8612,
      "Ġdemanda": 8613,
      "Ġprotest": 8614,
      "Ġinstrumento": 8615,
      "ĠfrancÃ©s": 8616,
      "itan": 8617,
      "Ġfol": 8618,
      "Ġcontiene": 8619,
      "ĠWomen": 8620,
      "Ġfresh": 8621,
      "Ġdificultades": 8622,
      "Ġnamed": 8623,
      "Ġlay": 8624,
      "rag": 8625,
      "Ġisla": 8626,
      "ĠEL": 8627,
      "ĠBud": 8628,
      "Ġplaced": 8629,
      "ĠVien": 8630,
      "Ġtiempos": 8631,
      "Ġindigenous": 8632,
      "neas": 8633,
      "akes": 8634,
      "ĠtomÃ³": 8635,
      "ĠCorte": 8636,
      "Ġeuropeo": 8637,
      "Ġpursuant": 8638,
      "62": 8639,
      "organ": 8640,
      "irma": 8641,
      "Ġalter": 8642,
      "ĠAcciÃ³n": 8643,
      "ander": 8644,
      "ĠHIV": 8645,
      "Ġevil": 8646,
      "Ġcomunes": 8647,
      "ĠenseÃ±anza": 8648,
      "house": 8649,
      "Ġdeuda": 8650,
      "Ġlaugh": 8651,
      "ĠAL": 8652,
      "Ġtex": 8653,
      "Ġrespecta": 8654,
      "Ġinvited": 8655,
      "Ġcerr": 8656,
      "Ġspeed": 8657,
      "Ġlarga": 8658,
      "Ġanoche": 8659,
      "abilities": 8660,
      "ĠGeorg": 8661,
      "Ġmachine": 8662,
      "ĠConvenio": 8663,
      "ĠcÃ¡rcel": 8664,
      "Fr": 8665,
      "Ġpond": 8666,
      "ette": 8667,
      "ĠSat": 8668,
      "ĠestarÃŃa": 8669,
      "Ġtribunal": 8670,
      "Ġinstruct": 8671,
      "Ġmuertos": 8672,
      "ek": 8673,
      "igan": 8674,
      "Ġplacer": 8675,
      "Ġpassed": 8676,
      "Ġmatch": 8677,
      "arlas": 8678,
      "ĠextraÃ±o": 8679,
      "Ġdamage": 8680,
      "Ġizquierda": 8681,
      "42": 8682,
      "NA": 8683,
      "iant": 8684,
      "ĠcÃ³digo": 8685,
      "Ã³st": 8686,
      "going": 8687,
      "Ġcans": 8688,
      "ĠniÃ±as": 8689,
      "Ġcontrolar": 8690,
      "Ġaprobado": 8691,
      "Ġtask": 8692,
      "Ġeficacia": 8693,
      "ghan": 8694,
      "orÃŃas": 8695,
      "Ġfantas": 8696,
      "Ġorg": 8697,
      "Ġwear": 8698,
      "ĠdebÃŃa": 8699,
      "Ġdescribed": 8700,
      "Ġfrecuencia": 8701,
      "Sir": 8702,
      "ĠFlor": 8703,
      "Ġentrev": 8704,
      "Ġdisposit": 8705,
      "Ġhubo": 8706,
      "Ġinfrastruct": 8707,
      "Ġidiota": 8708,
      "Ġcro": 8709,
      "Thanks": 8710,
      "Ġprost": 8711,
      "andy": 8712,
      "Ġconsultas": 8713,
      "ĠEUROPE": 8714,
      "05": 8715,
      "96": 8716,
      "bed": 8717,
      "Ġdul": 8718,
      "Ġgay": 8719,
      "ĠSant": 8720,
      "ĠBas": 8721,
      "Ġdiscul": 8722,
      "ĠestaciÃ³n": 8723,
      "Ġtienda": 8724,
      "onda": 8725,
      "Ġindis": 8726,
      "Ġindica": 8727,
      "Ġsituaciones": 8728,
      "Ġpunish": 8729,
      "Ġrefugiados": 8730,
      "ĠpÃ©rdida": 8731,
      "Ġtick": 8732,
      "Ġlines": 8733,
      "cher": 8734,
      "izes": 8735,
      "ĠRoma": 8736,
      "Ġprevention": 8737,
      "Ġinterview": 8738,
      "Ġpersonnel": 8739,
      "Ġaport": 8740,
      "Ġcod": 8741,
      "ller": 8742,
      "ĠBanco": 8743,
      "Ġabierto": 8744,
      "Ġcrimen": 8745,
      "Ġincluyendo": 8746,
      "Ġinstalaciones": 8747,
      "ĠIglesia": 8748,
      "Never": 8749,
      "Ġsed": 8750,
      "Ġsme": 8751,
      "Ġmm": 8752,
      "atem": 8753,
      "Ġestilo": 8754,
      "Ġoro": 8755,
      "Ġcha": 8756,
      "Ġcritical": 8757,
      "Ġraised": 8758,
      "Ġrepresenta": 8759,
      "Ġnaturales": 8760,
      "Ġstatements": 8761,
      "ĠBarcelona": 8762,
      "Ġclothes": 8763,
      "jor": 8764,
      "uci": 8765,
      "Ġhuge": 8766,
      "lem": 8767,
      "ĠPaz": 8768,
      "Ġcarre": 8769,
      "Ġrelation": 8770,
      "Ġdefined": 8771,
      "Ġayudas": 8772,
      "Ġnegro": 8773,
      "Ġlearned": 8774,
      "uxemb": 8775,
      "ĠLiber": 8776,
      "Ġaspecto": 8777,
      "uencia": 8778,
      "Ġ000": 8779,
      "Ġsenci": 8780,
      "Ġwood": 8781,
      "ĠEgypt": 8782,
      "apy": 8783,
      "Ġperpet": 8784,
      "ĠReport": 8785,
      "Ġsacar": 8786,
      "Ġintroduced": 8787,
      "Ġdemocratic": 8788,
      "ĠBritish": 8789,
      "back": 8790,
      "ĠÃŃ": 8791,
      "icana": 8792,
      "Ġrelease": 8793,
      "ivity": 8794,
      "ĠPadre": 8795,
      "acciones": 8796,
      "Ġstanding": 8797,
      "Ġrepet": 8798,
      "Ġadapt": 8799,
      "Ġvigilancia": 8800,
      "Ġminimum": 8801,
      "Ġhier": 8802,
      "Ġanun": 8803,
      "ĠCamb": 8804,
      "Ġcuyo": 8805,
      "Ġfell": 8806,
      "Ġimplementing": 8807,
      "Ġmedicamentos": 8808,
      "Ġdisponible": 8809,
      "ĠWilliam": 8810,
      "Ġdetalles": 8811,
      "Ġaproximadamente": 8812,
      "Ġdu": 8813,
      "ĠAz": 8814,
      "Ġarmon": 8815,
      "Ġseek": 8816,
      "head": 8817,
      "Ġdistancia": 8818,
      "Ġinteresting": 8819,
      "ĠdÃ©j": 8820,
      "Ġitems": 8821,
      "500": 8822,
      "Ġfase": 8823,
      "ĠAir": 8824,
      "Ġherram": 8825,
      "lave": 8826,
      "Algo": 8827,
      "Ġprincipalmente": 8828,
      "Ġbarco": 8829,
      "Ġencuentro": 8830,
      "Ġinvolve": 8831,
      "ĠSalv": 8832,
      "Everything": 8833,
      "ĠasociaciÃ³n": 8834,
      "Ġequilibr": 8835,
      "Ġposibilidades": 8836,
      "ugoslav": 8837,
      "eal": 8838,
      "Ġsched": 8839,
      "allo": 8840,
      "Ġingen": 8841,
      "amo": 8842,
      "ivia": 8843,
      "berg": 8844,
      "Ġapoyar": 8845,
      "iÃ©": 8846,
      "Ġmountain": 8847,
      "Ġextr": 8848,
      "echas": 8849,
      "Ġpase": 8850,
      "CuÃ¡ndo": 8851,
      "Ġmortal": 8852,
      "Ġrealize": 8853,
      "Ġrealizado": 8854,
      "menes": 8855,
      "Recuer": 8856,
      "ĠhacÃŃa": 8857,
      "with": 8858,
      "ett": 8859,
      "Ġexcell": 8860,
      "Ġcry": 8861,
      "Ġmechanisms": 8862,
      "Ġvirus": 8863,
      "Ġearlier": 8864,
      "Jo": 8865,
      "gment": 8866,
      "Ġhem": 8867,
      "uestros": 8868,
      "Ġhighly": 8869,
      "Ġstopped": 8870,
      "Ġcontributions": 8871,
      "armament": 8872,
      "Ġculp": 8873,
      "Ġeuropeos": 8874,
      "Ġtasa": 8875,
      "Ġrechaz": 8876,
      "Ġpeg": 8877,
      "orro": 8878,
      "amous": 8879,
      "Ġentra": 8880,
      "Ġprestar": 8881,
      "Ġenfermedades": 8882,
      "Ġguidelines": 8883,
      "Ġmaximum": 8884,
      "burg": 8885,
      "Ã©ctr": 8886,
      "Ġextent": 8887,
      "ĠeconÃ³micos": 8888,
      "Ġx": 8889,
      "Ġcena": 8890,
      "Ġcolect": 8891,
      "Ġpodamos": 8892,
      "ĠAssoci": 8893,
      "Ġrevolution": 8894,
      "Ġparticipate": 8895,
      "Ġbloque": 8896,
      "Ġindeed": 8897,
      "Ġaimed": 8898,
      "75": 8899,
      "Ġlived": 8900,
      "anÃŃa": 8901,
      "viamente": 8902,
      "Ġoffered": 8903,
      "leo": 8904,
      "ĠrÃŃo": 8905,
      "Ġraro": 8906,
      "ĠFace": 8907,
      "presa": 8908,
      "areas": 8909,
      "Ġlegit": 8910,
      "Ġnorth": 8911,
      "Ġsimpl": 8912,
      "ĠespÃŃritu": 8913,
      "ĠChristian": 8914,
      "Ġpermanente": 8915,
      "Ġdistintas": 8916,
      "RA": 8917,
      "Rem": 8918,
      "Ġescol": 8919,
      "irme": 8920,
      "Ġdesh": 8921,
      "ager": 8922,
      "ĠThen": 8923,
      "ĠobligaciÃ³n": 8924,
      "ĠCentre": 8925,
      "olÃ³gica": 8926,
      "Ġwedding": 8927,
      "ih": 8928,
      "vironment": 8929,
      "Ġuns": 8930,
      "Ġbeach": 8931,
      "ducing": 8932,
      "Ã©ramos": 8933,
      "Ġnumbers": 8934,
      "Ġintegration": 8935,
      "ĠAustria": 8936,
      "Del": 8937,
      "Ġsusp": 8938,
      "ĠStat": 8939,
      "Ġdetermine": 8940,
      "Ġsounds": 8941,
      "Ġsources": 8942,
      "ĠcÃ¡mara": 8943,
      "Ġquieras": 8944,
      "ĠPat": 8945,
      "Ġ34": 8946,
      "Ġfinancing": 8947,
      "Ġfactores": 8948,
      "Ġhambre": 8949,
      "Col": 8950,
      "IB": 8951,
      "incl": 8952,
      "Ġobras": 8953,
      "Ġespect": 8954,
      "ĠPeople": 8955,
      "ĠGet": 8956,
      "Ġalloc": 8957,
      "ensus": 8958,
      "Ġconsent": 8959,
      "Also": 8960,
      "Ġconsiderar": 8961,
      "TenÃŃa": 8962,
      "Ġciudades": 8963,
      "Ġmaster": 8964,
      "ship": 8965,
      "arters": 8966,
      "presiÃ³n": 8967,
      "Ġanywhere": 8968,
      "Ġrequiere": 8969,
      "Ġmotivos": 8970,
      "Ġrecordar": 8971,
      "Ġevaluation": 8972,
      "Ġmaravill": 8973,
      "Put": 8974,
      "sen": 8975,
      "Ãį": 8976,
      "Ġgather": 8977,
      "Ġrevel": 8978,
      "Ġunit": 8979,
      "Ġrise": 8980,
      "Ġworried": 8981,
      "ĠVan": 8982,
      "Ġmarry": 8983,
      "Ġnecesitar": 8984,
      "uye": 8985,
      "Ġprocesses": 8986,
      "Ġemergencia": 8987,
      "ĠaÃ©": 8988,
      "ĠintervenciÃ³n": 8989,
      "uevo": 8990,
      "ariamente": 8991,
      "ĠaviÃ³n": 8992,
      "Ġpresupuest": 8993,
      "Ġwatching": 8994,
      "Ġclaims": 8995,
      "Ġoficinas": 8996,
      "Ġdollars": 8997,
      "61": 8998,
      "TER": 8999,
      "antic": 9000,
      "Ġamoun": 9001,
      "ĠInvest": 9002,
      "ativamente": 9003,
      "Ġcount": 9004,
      "phere": 9005,
      "Ġreciente": 9006,
      "Ġputting": 9007,
      "Ġfinanciero": 9008,
      "Once": 9009,
      "ĠrÃ¡pidamente": 9010,
      "ĠService": 9011,
      "ĠcaracterÃŃsticas": 9012,
      "Ġbanda": 9013,
      "ecution": 9014,
      "ĠRob": 9015,
      "Ġtratados": 9016,
      "llah": 9017,
      "Ġpotencial": 9018,
      "olÃ³gico": 9019,
      "Debemos": 9020,
      "Before": 9021,
      "Ġvelocidad": 9022,
      "DA": 9023,
      "ean": 9024,
      "yen": 9025,
      "Ġmud": 9026,
      "ĠBre": 9027,
      "Ġclas": 9028,
      "Ġdiam": 9029,
      "onesia": 9030,
      "Ġbusca": 9031,
      "Ġimpacto": 9032,
      "Ġtotally": 9033,
      "Ġidentified": 9034,
      "Ġcorreo": 9035,
      "Ġmultilateral": 9036,
      "Ġharmon": 9037,
      "Ġincluyen": 9038,
      "Ġcontains": 9039,
      "Ġillegal": 9040,
      "Ġpromotion": 9041,
      "Ġbillion": 9042,
      "SA": 9043,
      "ĠMom": 9044,
      "illy": 9045,
      "ĠGreat": 9046,
      "Ġimpr": 9047,
      "ĠclÃŃn": 9048,
      "Ġplanned": 9049,
      "Ġblue": 9050,
      "Ġbroke": 9051,
      "Ġpayment": 9052,
      "Ġfiguran": 9053,
      "Ġawareness": 9054,
      "Ġwonderful": 9055,
      "Ġspiritual": 9056,
      "aÃ±os": 9057,
      "aks": 9058,
      "fl": 9059,
      "iamente": 9060,
      "ancial": 9061,
      "Ġenorm": 9062,
      "Ġstore": 9063,
      "ĠindÃŃgenas": 9064,
      "Ġbote": 9065,
      "Ġincrement": 9066,
      "Ġmovie": 9067,
      "Ġactuar": 9068,
      "Ġrazon": 9069,
      "Ġrehabil": 9070,
      "Prim": 9071,
      "Us": 9072,
      "ov": 9073,
      "Ġamar": 9074,
      "Ġpodido": 9075,
      "ditos": 9076,
      "Ġprobable": 9077,
      "Ġabrir": 9078,
      "ĠDerecho": 9079,
      "Ġliberal": 9080,
      "John": 9081,
      "Pa": 9082,
      "Ġcig": 9083,
      "ÃŃmenes": 9084,
      "Ġprobar": 9085,
      "fortable": 9086,
      "Ġabierta": 9087,
      "Ġadvis": 9088,
      "ĠWil": 9089,
      "Ġ75": 9090,
      "ĠdecidiÃ³": 9091,
      "Ġbooks": 9092,
      "Ġdesarrollar": 9093,
      "ĠConstituciÃ³n": 9094,
      "Cap": 9095,
      "Mis": 9096,
      "Ġcot": 9097,
      "ĠvÃŃa": 9098,
      "...\"": 9099,
      "Ġraise": 9100,
      "Ġpropias": 9101,
      "Ġdecirte": 9102,
      "Ġpelo": 9103,
      "Today": 9104,
      "Ġamplio": 9105,
      "Ġsucede": 9106,
      "Ġregulations": 9107,
      "Ġdesapar": 9108,
      "Ġadvantage": 9109,
      "ĠEconÃ³mico": 9110,
      "Ġsudden": 9111,
      "97": 9112,
      "BAR": 9113,
      "uj": 9114,
      "aling": 9115,
      "ĠRay": 9116,
      "ĠÂ»": 9117,
      "useum": 9118,
      "Ġ1989": 9119,
      "Ġprofesor": 9120,
      "Ġmomentos": 9121,
      "Ġreplaced": 9122,
      "sible": 9123,
      "Ã¨": 9124,
      "ĠNicarag": 9125,
      "Ġfool": 9126,
      "ĠAsÃŃ": 9127,
      "Ġstrug": 9128,
      "CTAD": 9129,
      "Ġcrucial": 9130,
      "Ġdivertido": 9131,
      "Ġreleased": 9132,
      "Cause": 9133,
      "Llam": 9134,
      "si": 9135,
      "Ġcusto": 9136,
      "Ġquiera": 9137,
      "Ã³nica": 9138,
      "urt": 9139,
      "Ġforg": 9140,
      "ĠAud": 9141,
      "ĠMisiÃ³n": 9142,
      "Ġpref": 9143,
      "Ġusers": 9144,
      "Ġoperating": 9145,
      "Ġvacaciones": 9146,
      "THE": 9147,
      "Ġtriste": 9148,
      "Ġmix": 9149,
      "Ġsobreviv": 9150,
      "Ġrode": 9151,
      "pring": 9152,
      "Ġespal": 9153,
      "Ġcerebro": 9154,
      "ĠJerusal": 9155,
      "Ġfederal": 9156,
      "Last": 9157,
      "MI": 9158,
      "ardo": 9159,
      "char": 9160,
      "Nothing": 9161,
      "Ġhumanidad": 9162,
      "Ġtratado": 9163,
      "vÃ©ase": 9164,
      "Ġdip": 9165,
      "Ġdouble": 9166,
      "Ġmoles": 9167,
      "Ġfamos": 9168,
      "Ġinoc": 9169,
      "Ġcomment": 9170,
      "Ġactuales": 9171,
      "Ġblow": 9172,
      "Ġabsor": 9173,
      "Ġarchivos": 9174,
      "Ġrenew": 9175,
      "apacidad": 9176,
      "01": 9177,
      "95": 9178,
      "adic": 9179,
      "ingo": 9180,
      "Ġenamor": 9181,
      "ĠMont": 9182,
      "estre": 9183,
      "Ġcorte": 9184,
      "Ġfactors": 9185,
      "employ": 9186,
      "Ġfighting": 9187,
      "Ġrecognized": 9188,
      "Ġdetailed": 9189,
      "Ġmentir": 9190,
      "ĠAfghan": 9191,
      "field": 9192,
      "ollow": 9193,
      "ĠcÃ¡l": 9194,
      "Ã¡genes": 9195,
      "Ġexternal": 9196,
      "arden": 9197,
      "ĠYugoslav": 9198,
      "ĠpresentÃ³": 9199,
      "Ġspeech": 9200,
      "ĠsupervisiÃ³n": 9201,
      "Ġintegrated": 9202,
      "Ġcompared": 9203,
      "Ġseparate": 9204,
      "Ġconclusiones": 9205,
      "Ġproceedings": 9206,
      "ri": 9207,
      "esper": 9208,
      "Ġnombres": 9209,
      "Ġescape": 9210,
      "ĠIran": 9211,
      "Ġprel": 9212,
      "Ġprepare": 9213,
      "Ġextend": 9214,
      "Ġexistentes": 9215,
      "Ġopening": 9216,
      "Ġhermanos": 9217,
      "ĠtÃ©cnicas": 9218,
      "ĠTengo": 9219,
      "Ġlucky": 9220,
      "Dijo": 9221,
      "Ġpowers": 9222,
      "arry": 9223,
      "ĠST": 9224,
      "ĠjamÃ¡s": 9225,
      "Ġopciones": 9226,
      "**": 9227,
      "ĠtÃŃtulo": 9228,
      "Ġoh": 9229,
      "eds": 9230,
      "Ġnine": 9231,
      "izadas": 9232,
      "Ġdirection": 9233,
      "Ġaguas": 9234,
      "Ġpurch": 9235,
      "Ġeasily": 9236,
      "Ġadecuada": 9237,
      "Ġtranqu": 9238,
      "Ġscene": 9239,
      "Bus": 9240,
      "olucion": 9241,
      "ĠGol": 9242,
      "Ġabar": 9243,
      "Ġadjust": 9244,
      "Ġcred": 9245,
      "Ġthereof": 9246,
      "ĠKor": 9247,
      "Ġmonet": 9248,
      "Ĥ¬": 9249,
      "Ġforced": 9250,
      "Ġload": 9251,
      "that": 9252,
      "Ġimage": 9253,
      "ĠWH": 9254,
      "Ġformular": 9255,
      "Ġirme": 9256,
      "Todas": 9257,
      "Ġgusto": 9258,
      "ĠmÃ©todo": 9259,
      "Ġliquid": 9260,
      "ĠBrasil": 9261,
      "Ġjuz": 9262,
      "Ġfinished": 9263,
      "Ġemit": 9264,
      "Ġproducir": 9265,
      "Ġtrabaja": 9266,
      "Ġcontinues": 9267,
      "Ġdetener": 9268,
      "iritual": 9269,
      "ĠpeticiÃ³n": 9270,
      "Ġarrangements": 9271,
      "ĠÃ©poca": 9272,
      "Most": 9273,
      "how": 9274,
      "ĠCro": 9275,
      "ĠCode": 9276,
      "Ġaconte": 9277,
      "ĠJew": 9278,
      "Ġexperts": 9279,
      "Ġnegative": 9280,
      "ĠGovernments": 9281,
      "zca": 9282,
      "ĠdÃ©c": 9283,
      "arg": 9284,
      "Ġnone": 9285,
      "Ġjoy": 9286,
      "ĠmatÃ³": 9287,
      "Ġ65": 9288,
      "Ġrequires": 9289,
      "Ġcalm": 9290,
      "Ġcomunicaciones": 9291,
      "Ġelectoral": 9292,
      "Ġescuelas": 9293,
      "Ġindependiente": 9294,
      "Ġestrategias": 9295,
      "Informe": 9296,
[...]
